{
  "version": "1.0",
  "truncation": null,
  "padding": null,
  "added_tokens": [
    {
      "id": 0,
      "content": "<pad>",
      "single_word": false,
      "lstrip": false,
      "rstrip": false,
      "normalized": false,
      "special": true
    },
    {
      "id": 1,
      "content": "<unk>",
      "single_word": false,
      "lstrip": false,
      "rstrip": false,
      "normalized": false,
      "special": true
    },
    {
      "id": 2,
      "content": "<bos>",
      "single_word": false,
      "lstrip": false,
      "rstrip": false,
      "normalized": false,
      "special": true
    },
    {
      "id": 3,
      "content": "<eos>",
      "single_word": false,
      "lstrip": false,
      "rstrip": false,
      "normalized": false,
      "special": true
    }
  ],
  "normalizer": null,
  "pre_tokenizer": {
    "type": "Whitespace"
  },
  "post_processor": null,
  "decoder": null,
  "model": {
    "type": "BPE",
    "dropout": null,
    "unk_token": null,
    "continuing_subword_prefix": null,
    "end_of_word_suffix": null,
    "fuse_unk": false,
    "byte_fallback": false,
    "ignore_merges": false,
    "vocab": {
      "<pad>": 0,
      "<unk>": 1,
      "<bos>": 2,
      "<eos>": 3,
      "!": 4,
      "\"": 5,
      "'": 6,
      "(": 7,
      ")": 8,
      "*": 9,
      ",": 10,
      "-": 11,
      ".": 12,
      "/": 13,
      "0": 14,
      "1": 15,
      "2": 16,
      "3": 17,
      "4": 18,
      "5": 19,
      "6": 20,
      "7": 21,
      "8": 22,
      "9": 23,
      ":": 24,
      ";": 25,
      "?": 26,
      "A": 27,
      "B": 28,
      "C": 29,
      "D": 30,
      "E": 31,
      "F": 32,
      "G": 33,
      "H": 34,
      "I": 35,
      "J": 36,
      "K": 37,
      "L": 38,
      "M": 39,
      "N": 40,
      "O": 41,
      "P": 42,
      "Q": 43,
      "R": 44,
      "S": 45,
      "T": 46,
      "U": 47,
      "V": 48,
      "W": 49,
      "X": 50,
      "Y": 51,
      "Z": 52,
      "[": 53,
      "]": 54,
      "_": 55,
      "a": 56,
      "b": 57,
      "c": 58,
      "d": 59,
      "e": 60,
      "f": 61,
      "g": 62,
      "h": 63,
      "i": 64,
      "j": 65,
      "k": 66,
      "l": 67,
      "m": 68,
      "n": 69,
      "o": 70,
      "p": 71,
      "q": 72,
      "r": 73,
      "s": 74,
      "t": 75,
      "u": 76,
      "v": 77,
      "w": 78,
      "x": 79,
      "y": 80,
      "z": 81,
      "{": 82,
      "}": 83,
      "th": 84,
      "in": 85,
      "the": 86,
      "an": 87,
      "on": 88,
      "at": 89,
      "is": 90,
      "re": 91,
      "Kt": 92,
      "it": 93,
      "en": 94,
      "to": 95,
      "..": 96,
      "ing": 97,
      "ve": 98,
      "st": 99,
      "la": 100,
      "ou": 101,
      "of": 102,
      "ll": 103,
      "be": 104,
      "ch": 105,
      "er": 106,
      "and": 107,
      "or": 108,
      "as": 109,
      "ck": 110,
      "ion": 111,
      "es": 112,
      "ed": 113,
      "he": 114,
      "Wh": 115,
      "ite": 116,
      "me": 117,
      "White": 118,
      "ow": 119,
      "lack": 120,
      "Black": 121,
      "mo": 122,
      "os": 123,
      "le": 124,
      "ld": 125,
      "wi": 126,
      "op": 127,
      "ould": 128,
      "aw": 129,
      "ce": 130,
      "....": 131,
      "ly": 132,
      "de": 133,
      "ent": 134,
      "pos": 135,
      "al": 136,
      "pla": 137,
      "se": 138,
      "ga": 139,
      "ta": 140,
      "ad": 141,
      "his": 142,
      "move": 143,
      "ar": 144,
      "wh": 145,
      "awn": 146,
      "play": 147,
      "Pawn": 148,
      "no": 149,
      "that": 150,
      "for": 151,
      "si": 152,
      "gh": 153,
      "ation": 154,
      "ha": 155,
      "ition": 156,
      "position": 157,
      "The": 158,
      "ct": 159,
      "King": 160,
      "om": 161,
      "would": 162,
      "ght": 163,
      "with": 164,
      "ex": 165,
      "ust": 166,
      "are": 167,
      "all": 168,
      "by": 169,
      "not": 170,
      "ver": 171,
      "whi": 172,
      "so": 173,
      "this": 174,
      "have": 175,
      "ight": 176,
      "ut": 177,
      "game": 178,
      "fo": 179,
      "oo": 180,
      "will": 181,
      "which": 182,
      "ge": 183,
      "sh": 184,
      "we": 185,
      "ther": 186,
      "su": 187,
      "ish": 188,
      "ue": 189,
      "pr": 190,
      "win": 191,
      "can": 192,
      "con": 193,
      "ter": 194,
      "ces": 195,
      "if": 196,
      "ti": 197,
      "ab": 198,
      "ration": 199,
      "ay": 200,
      "van": 201,
      "llust": 202,
      "llustration": 203,
      "advan": 204,
      "Illustration": 205,
      "ke": 206,
      "ate": 207,
      "one": 208,
      "end": 209,
      "ook": 210,
      "Bish": 211,
      "Bishop": 212,
      "ic": 213,
      "has": 214,
      "im": 215,
      "ca": 216,
      "gain": 217,
      "act": 218,
      "but": 219,
      "com": 220,
      "........": 221,
      "ive": 222,
      "pre": 223,
      "id": 224,
      "ie": 225,
      "our": 226,
      "side": 227,
      "qu": 228,
      "pl": 229,
      "ma": 230,
      "atta": 231,
      "attack": 232,
      "Pawns": 233,
      "sa": 234,
      "ueen": 235,
      "Queen": 236,
      "Rook": 237,
      "reat": 238,
      "Kn": 239,
      "out": 240,
      "Knight": 241,
      "now": 242,
      "der": 243,
      "llow": 244,
      "follow": 245,
      "there": 246,
      "should": 247,
      "very": 248,
      "pie": 249,
      "am": 250,
      "fr": 251,
      "un": 252,
      "fe": 253,
      "use": 254,
      "ally": 255,
      "If": 256,
      "It": 257,
      "again": 258,
      "was": 259,
      "AM": 260,
      "beca": 261,
      "ending": 262,
      "In": 263,
      "ob": 264,
      "chan": 265,
      "because": 266,
      "19": 267,
      "ul": 268,
      "time": 269,
      "way": 270,
      "This": 271,
      "up": 272,
      "...": 273,
      "other": 274,
      "ple": 275,
      "against": 276,
      "ir": 277,
      "ven": 278,
      "ak": 279,
      "only": 280,
      "def": 281,
      "pieces": 282,
      "us": 283,
      "threat": 284,
      "fore": 285,
      "LE": 286,
      "dr": 287,
      "cas": 288,
      "tr": 289,
      "ud": 290,
      "tage": 291,
      "advantage": 292,
      "played": 293,
      "from": 294,
      "ur": 295,
      "wo": 296,
      "been": 297,
      "PLE": 298,
      "more": 299,
      "10": 300,
      "two": 301,
      "then": 302,
      "any": 303,
      "best": 304,
      "--": 305,
      "ong": 306,
      "ening": 307,
      "able": 308,
      "prev": 309,
      "13": 310,
      "EX": 311,
      "mate": 312,
      "stud": 313,
      "AMPLE": 314,
      "EXAMPLE": 315,
      "lop": 316,
      "te": 317,
      "velop": 318,
      "ous": 319,
      "develop": 320,
      "moves": 321,
      "ard": 322,
      "co": 323,
      "14": 324,
      "some": 325,
      "thing": 326,
      "eri": 327,
      "fin": 328,
      "must": 329,
      "own": 330,
      "18": 331,
      "br": 332,
      "ment": 333,
      "ess": 334,
      "sim": 335,
      "do": 336,
      "how": 337,
      "ext": 338,
      "12": 339,
      "16": 340,
      "ever": 341,
      "bet": 342,
      "ap": 343,
      "bo": 344,
      "could": 345,
      "oun": 346,
      "order": 347,
      "tain": 348,
      "pe": 349,
      "weak": 350,
      "same": 351,
      "17": 352,
      "ac": 353,
      "advance": 354,
      "los": 355,
      "par": 356,
      "ari": 357,
      "when": 358,
      "draw": 359,
      "student": 360,
      "15": 361,
      "Th": 362,
      "ble": 363,
      "go": 364,
      "mat": 365,
      "squ": 366,
      "such": 367,
      "square": 368,
      "23": 369,
      "ast": 370,
      "my": 371,
      "vari": 372,
      "followed": 373,
      ".--": 374,
      "24": 375,
      "dif": 376,
      "fic": 377,
      "ost": 378,
      "cannot": 379,
      "20": 380,
      "ced": 381,
      "give": 382,
      "him": 383,
      "red": 384,
      "str": 385,
      "better": 386,
      "He": 387,
      "ci": 388,
      "cour": 389,
      "di": 390,
      "lat": 391,
      "ving": 392,
      "ree": 393,
      "ough": 394,
      "Now": 395,
      "fter": 396,
      "ence": 397,
      "11": 398,
      "case": 399,
      "course": 400,
      "22": 401,
      "il": 402,
      "ts": 403,
      "also": 404,
      "obtain": 405,
      ".)": 406,
      "cent": 407,
      "gin": 408,
      "ning": 409,
      "read": 410,
      "ort": 411,
      "prevent": 412,
      "ack": 413,
      "goo": 414,
      "text": 415,
      "ener": 416,
      "possi": 417,
      "take": 418,
      "variation": 419,
      "good": 420,
      "ei": 421,
      "gi": 422,
      "irst": 423,
      "had": 424,
      "might": 425,
      "exchan": 426,
      "pro": 427,
      "back": 428,
      "first": 429,
      "gener": 430,
      "port": 431,
      "whe": 432,
      "opening": 433,
      "bring": 434,
      "centre": 435,
      "either": 436,
      "IN": 437,
      "after": 438,
      "playing": 439,
      "make": 440,
      "threaten": 441,
      "diffic": 442,
      "difficul": 443,
      "21": 444,
      "ty": 445,
      "ten": 446,
      "uch": 447,
      "plan": 448,
      "25": 449,
      "EN": 450,
      "ep": 451,
      "ind": 452,
      "ince": 453,
      "begin": 454,
      "eas": 455,
      "vi": 456,
      "ative": 457,
      "res": 458,
      "ity": 459,
      "last": 460,
      "endings": 461,
      "into": 462,
      "exam": 463,
      "prop": 464,
      "wins": 465,
      "winning": 466,
      "ready": 467,
      "given": 468,
      "28": 469,
      "ne": 470,
      "most": 471,
      "keep": 472,
      "board": 473,
      "may": 474,
      "pt": 475,
      "sha": 476,
      "inci": 477,
      "ans": 478,
      "once": 479,
      "reas": 480,
      "iti": 481,
      "There": 482,
      "princi": 483,
      "proper": 484,
      "shall": 485,
      "fi": 486,
      "fact": 487,
      "man": 488,
      "since": 489,
      "thus": 490,
      "well": 491,
      "sup": 492,
      "qui": 493,
      "come": 494,
      "acc": 495,
      "26": 496,
      "27": 497,
      "sed": 498,
      "ure": 499,
      "than": 500,
      "int": 501,
      "before": 502,
      "see": 503,
      "tak": 504,
      "force": 505,
      "development": 506,
      "possible": 507,
      "exchange": 508,
      "often": 509,
      "ers": 510,
      "show": 511,
      "pract": 512,
      "action": 513,
      "ples": 514,
      "Rooks": 515,
      "following": 516,
      "however": 517,
      "29": 518,
      "bin": 519,
      "dis": 520,
      "gn": 521,
      "mes": 522,
      "thr": 523,
      "these": 524,
      "ste": 525,
      "lar": 526,
      "sel": 527,
      "squares": 528,
      "where": 529,
      "et": 530,
      "ect": 531,
      "po": 532,
      "ought": 533,
      "lose": 534,
      "difficult": 535,
      "long": 536,
      "lost": 537,
      "much": 538,
      "ren": 539,
      "opposition": 540,
      "positions": 541,
      "self": 542,
      "ag": 543,
      "great": 544,
      "ide": 545,
      "ject": 546,
      "ol": 547,
      "pas": 548,
      "ant": 549,
      "ated": 550,
      "seen": 551,
      "nothing": 552,
      "soon": 553,
      "shown": 554,
      "ably": 555,
      "ious": 556,
      "less": 557,
      "pare": 558,
      "wor": 559,
      "them": 560,
      "ise": 561,
      "rect": 562,
      "plays": 563,
      "exce": 564,
      "cess": 565,
      "therefore": 566,
      "does": 567,
      "part": 568,
      "30": 569,
      "GAM": 570,
      "even": 571,
      "lan": 572,
      "pon": 573,
      "um": 574,
      "its": 575,
      "already": 576,
      "without": 577,
      "while": 578,
      "ical": 579,
      "combin": 580,
      "ident": 581,
      "defend": 582,
      "defence": 583,
      "simple": 584,
      "ount": 585,
      "easi": 586,
      "reason": 587,
      "quick": 588,
      "31": 589,
      "des": 590,
      "eu": 591,
      "fu": 592,
      "ful": 593,
      "lin": 594,
      "oeu": 595,
      "sto": 596,
      "three": 597,
      "ance": 598,
      "oppon": 599,
      "ary": 600,
      "form": 601,
      "forced": 602,
      "under": 603,
      "object": 604,
      "chance": 605,
      "later": 606,
      "manoeu": 607,
      "through": 608,
      "full": 609,
      "opponent": 610,
      "manoeuv": 611,
      "av": 612,
      "ach": 613,
      "care": 614,
      "dou": 615,
      "ied": 616,
      "ign": 617,
      "ove": 618,
      "right": 619,
      "won": 620,
      "ont": 621,
      "ord": 622,
      "what": 623,
      "above": 624,
      "ately": 625,
      "ically": 626,
      "import": 627,
      "front": 628,
      "cases": 629,
      "erial": 630,
      "material": 631,
      "direct": 632,
      "file": 633,
      "passed": 634,
      "33": 635,
      "Res": 636,
      "TH": 637,
      "bad": 638,
      "ice": 639,
      "val": 640,
      "arr": 641,
      "having": 642,
      "cond": 643,
      "main": 644,
      "igns": 645,
      "Resigns": 646,
      "32": 647,
      "34": 648,
      "35": 649,
      "Cap": 650,
      "No": 651,
      "cing": 652,
      "ev": 653,
      "ho": 654,
      "hand": 655,
      "ilar": 656,
      "med": 657,
      "per": 658,
      "ply": 659,
      "initi": 660,
      "lea": 661,
      "oppos": 662,
      "dem": 663,
      "ablan": 664,
      "pres": 665,
      "piece": 666,
      "threatening": 667,
      "previous": 668,
      "similar": 669,
      "general": 670,
      "threatens": 671,
      "GAME": 672,
      "Capablan": 673,
      "Capablanca": 674,
      "39": 675,
      "40": 676,
      "41": 677,
      "bl": 678,
      "dan": 679,
      "free": 680,
      "ger": 681,
      "ill": 682,
      "ner": 683,
      "od": 684,
      "over": 685,
      "your": 686,
      "they": 687,
      "rest": 688,
      "off": 689,
      "least": 690,
      "open": 691,
      "forces": 692,
      "cont": 693,
      "Bishops": 694,
      "compl": 695,
      "mak": 696,
      "few": 697,
      "diag": 698,
      "point": 699,
      "idea": 700,
      "combination": 701,
      "stop": 702,
      "initiative": 703,
      "danger": 704,
      "38": 705,
      "post": 706,
      "who": 707,
      "player": 708,
      "conside": 709,
      "comes": 710,
      "quent": 711,
      "safe": 712,
      "finally": 713,
      "both": 714,
      "Thus": 715,
      "easily": 716,
      "quickly": 717,
      "contin": 718,
      "considered": 719,
      "36": 720,
      "37": 721,
      "carr": 722,
      "ef": 723,
      "mis": 724,
      "mid": 725,
      "pow": 726,
      "ensi": 727,
      "means": 728,
      "sider": 729,
      "consider": 730,
      "Knights": 731,
      "fect": 732,
      "ways": 733,
      "find": 734,
      "ound": 735,
      "generally": 736,
      "practically": 737,
      "power": 738,
      "ensive": 739,
      "42": 740,
      "On": 741,
      "dle": 742,
      "done": 743,
      "ies": 744,
      "ual": 745,
      "ward": 746,
      "sequent": 747,
      "sides": 748,
      "were": 749,
      "immed": 750,
      "openings": 751,
      "principles": 752,
      "fully": 753,
      "THE": 754,
      "middle": 755,
      "immedi": 756,
      "),": 757,
      "But": 758,
      "cr": 759,
      "olat": 760,
      "ted": 761,
      "uation": 762,
      "still": 763,
      "away": 764,
      "always": 765,
      "get": 766,
      "contr": 767,
      "times": 768,
      "comple": 769,
      "pect": 770,
      "strong": 771,
      "accord": 772,
      "stead": 773,
      "value": 774,
      "evident": 775,
      "leave": 776,
      "As": 777,
      "We": 778,
      "aly": 779,
      "bil": 780,
      "est": 781,
      "ient": 782,
      "know": 783,
      "nam": 784,
      "num": 785,
      "pen": 786,
      "real": 787,
      "ber": 788,
      "lear": 789,
      "suc": 790,
      "prob": 791,
      "said": 792,
      "chances": 793,
      "defensive": 794,
      "gives": 795,
      "himself": 796,
      "ING": 797,
      "makes": 798,
      "sequently": 799,
      "AT": 800,
      "At": 801,
      "age": 802,
      "book": 803,
      "call": 804,
      "did": 805,
      "li": 806,
      "look": 807,
      "mind": 808,
      "nat": 809,
      "que": 810,
      "ran": 811,
      "sis": 812,
      "wan": 813,
      "instead": 814,
      "isolat": 815,
      "too": 816,
      "tern": 817,
      "comm": 818,
      "mast": 819,
      "feren": 820,
      "col": 821,
      "erior": 822,
      "matter": 823,
      "variations": 824,
      "principle": 825,
      "taken": 826,
      "demon": 827,
      "immediately": 828,
      "nament": 829,
      "wants": 830,
      "Cast": 831,
      "To": 832,
      "Tour": 833,
      "fa": 834,
      "lie": 835,
      "tle": 836,
      "wr": 837,
      "inte": 838,
      "stand": 839,
      "che": 840,
      "hel": 841,
      "consequently": 842,
      "attacking": 843,
      "threatened": 844,
      "via": 845,
      "necess": 846,
      "superior": 847,
      "manoeuvre": 848,
      "doub": 849,
      "according": 850,
      "isolated": 851,
      "colour": 852,
      "Tournament": 853,
      "interest": 854,
      ");": 855,
      "Again": 856,
      "Mar": 857,
      "OP": 858,
      "bre": 859,
      "cor": 860,
      "far": 861,
      "many": 862,
      "ness": 863,
      "seri": 864,
      "though": 865,
      "thought": 866,
      "rely": 867,
      "resu": 868,
      "remain": 869,
      "ope": 870,
      "ceed": 871,
      "pose": 872,
      "exp": 873,
      "suf": 874,
      "unless": 875,
      "tem": 876,
      "loses": 877,
      "going": 878,
      "strate": 879,
      "examin": 880,
      "except": 881,
      "line": 882,
      "important": 883,
      "complete": 884,
      "number": 885,
      "probably": 886,
      "like": 887,
      "quest": 888,
      "Marshall": 889,
      "break": 890,
      "Fr": 891,
      "Of": 892,
      "PA": 893,
      "RO": 894,
      "cer": 895,
      "close": 896,
      "fer": 897,
      "sit": 898,
      "sing": 899,
      "yet": 900,
      "ined": 901,
      "onal": 902,
      "being": 903,
      "becomes": 904,
      "orm": 905,
      "ask": 906,
      "head": 907,
      "altern": 908,
      "games": 909,
      "expla": 910,
      "sol": 911,
      "sure": 912,
      "consis": 913,
      "actual": 914,
      "made": 915,
      "sacr": 916,
      "study": 917,
      "things": 918,
      "brought": 919,
      "weakness": 920,
      "accompl": 921,
      "obtained": 922,
      "example": 923,
      "examples": 924,
      "account": 925,
      "work": 926,
      "carefully": 927,
      "opposing": 928,
      "diagonal": 929,
      "check": 930,
      "doubt": 931,
      "resul": 932,
      "question": 933,
      "From": 934,
      "situation": 935,
      "alternative": 936,
      "sacrif": 937,
      "accomplish": 938,
      "43": 939,
      "44": 940,
      "CH": 941,
      "DE": 942,
      "ER": 943,
      "Lask": 944,
      "ather": 945,
      "ahead": 946,
      "fur": 947,
      "hind": 948,
      "mar": 949,
      "ock": 950,
      "put": 951,
      "sk": 952,
      "ting": 953,
      "tly": 954,
      "tent": 955,
      "wise": 956,
      "another": 957,
      "When": 958,
      "moved": 959,
      "prepare": 960,
      "try": 961,
      "developed": 962,
      "ficient": 963,
      "ities": 964,
      "takes": 965,
      "shows": 966,
      "importance": 967,
      "hold": 968,
      "block": 969,
      "carried": 970,
      "pens": 971,
      "success": 972,
      "rank": 973,
      "lieve": 974,
      "wrong": 975,
      "interesting": 976,
      "serious": 977,
      "sufficient": 978,
      "strateg": 979,
      "Lasker": 980,
      "AN": 981,
      "CE": 982,
      "IT": 983,
      "OF": 984,
      "Wi": 985,
      "aim": 986,
      "cur": 987,
      "count": 988,
      "each": 989,
      "gr": 990,
      "ged": 991,
      "lit": 992,
      "ling": 993,
      "ms": 994,
      "ned": 995,
      "next": 996,
      "never": 997,
      "oc": 998,
      "rather": 999,
      "tur": 1000,
      "ually": 1001,
      "thin": 1002,
      "inter": 1003,
      "their": 1004,
      "analy": 1005,
      "ates": 1006,
      "itself": 1007,
      "toge": 1008,
      "stated": 1009,
      "stage": 1010,
      "lay": 1011,
      "believe": 1012,
      "assu": 1013,
      "ose": 1014,
      "lead": 1015,
      "dec": 1016,
      "hap": 1017,
      "Kings": 1018,
      "tic": 1019,
      "about": 1020,
      "advancing": 1021,
      "ided": 1022,
      "follows": 1023,
      "1913": 1024,
      "true": 1025,
      "somewhat": 1026,
      "simply": 1027,
      "Then": 1028,
      "differen": 1029,
      "obtaining": 1030,
      "possibil": 1031,
      "prove": 1032,
      "brings": 1033,
      "viol": 1034,
      "keeping": 1035,
      "longer": 1036,
      "paren": 1037,
      "present": 1038,
      "posted": 1039,
      "effect": 1040,
      "control": 1041,
      "called": 1042,
      "master": 1043,
      "help": 1044,
      "necessary": 1045,
      "experi": 1046,
      "further": 1047,
      "ski": 1048,
      "With": 1049,
      "little": 1050,
      "think": 1051,
      "together": 1052,
      "An": 1053,
      "Be": 1054,
      "Dr": 1055,
      "Ex": 1056,
      "Ha": 1057,
      "Jan": 1058,
      "RE": 1059,
      "Ru": 1060,
      "Such": 1061,
      "WN": 1062,
      "coun": 1063,
      "el": 1064,
      "every": 1065,
      "ft": 1066,
      "fre": 1067,
      "fav": 1068,
      "hi": 1069,
      "min": 1070,
      "ram": 1071,
      "say": 1072,
      "wer": 1073,
      "you": 1074,
      "those": 1075,
      "ating": 1076,
      "attem": 1077,
      "attent": 1078,
      "llent": 1079,
      "bear": 1080,
      "besides": 1081,
      "behind": 1082,
      "here": 1083,
      "merely": 1084,
      "owski": 1085,
      "left": 1086,
      "opport": 1087,
      "second": 1088,
      "players": 1089,
      "forcing": 1090,
      "expect": 1091,
      "sub": 1092,
      "icated": 1093,
      "ides": 1094,
      "Queens": 1095,
      "ample": 1096,
      "otherwise": 1097,
      "developing": 1098,
      "fine": 1099,
      "mates": 1100,
      "whether": 1101,
      "type": 1102,
      "beginner": 1103,
      "fix": 1104,
      "support": 1105,
      "suppose": 1106,
      "excellent": 1107,
      "directly": 1108,
      "Not": 1109,
      "diagram": 1110,
      "safety": 1111,
      "continu": 1112,
      "mistake": 1113,
      "powerful": 1114,
      "PAWN": 1115,
      "different": 1116,
      "violent": 1117,
      "parently": 1118,
      "experience": 1119,
      "Janowski": 1120,
      "counter": 1121,
      "attention": 1122,
      "opportun": 1123,
      "45": 1124,
      "AL": 1125,
      "After": 1126,
      "His": 1127,
      "UE": 1128,
      "cir": 1129,
      "cum": 1130,
      "fight": 1131,
      "gth": 1132,
      "hope": 1133,
      "lu": 1134,
      "led": 1135,
      "pur": 1136,
      "ru": 1137,
      "ry": 1138,
      "rid": 1139,
      "sl": 1140,
      "sy": 1141,
      "spe": 1142,
      "vis": 1143,
      "ances": 1144,
      "reme": 1145,
      "reate": 1146,
      "regain": 1147,
      "reply": 1148,
      "stration": 1149,
      "stren": 1150,
      "stances": 1151,
      "ese": 1152,
      "altogether": 1153,
      "fort": 1154,
      "exer": 1155,
      "vers": 1156,
      "ween": 1157,
      "compens": 1158,
      "defending": 1159,
      "tect": 1160,
      "between": 1161,
      "appl": 1162,
      "weaken": 1163,
      "loss": 1164,
      "drawing": 1165,
      "These": 1166,
      "proceed": 1167,
      "protect": 1168,
      "easy": 1169,
      "Therefore": 1170,
      "avo": 1171,
      "condition": 1172,
      "perfect": 1173,
      "pressure": 1174,
      "wards": 1175,
      "stronger": 1176,
      "natur": 1177,
      "command": 1178,
      "demonstration": 1179,
      "corner": 1180,
      "completely": 1181,
      "explained": 1182,
      "sacrifice": 1183,
      "blocks": 1184,
      "AND": 1185,
      "aims": 1186,
      "counting": 1187,
      "favour": 1188,
      "opportunity": 1189,
      "circum": 1190,
      "rule": 1191,
      "syste": 1192,
      "strength": 1193,
      "circumstances": 1194,
      ".[": 1195,
      "46": 1196,
      "48": 1197,
      "51": 1198,
      "AC": 1199,
      "AP": 1200,
      "Al": 1201,
      "Bes": 1202,
      "Cha": 1203,
      "ED": 1204,
      "For": 1205,
      "Had": 1206,
      "ON": 1207,
      "Pe": 1208,
      "St": 1209,
      "_the": 1210,
      "bit": 1211,
      "bur": 1212,
      "creas": 1213,
      "clear": 1214,
      "due": 1215,
      "down": 1216,
      "found": 1217,
      "gment": 1218,
      "hard": 1219,
      "ial": 1220,
      "jud": 1221,
      "kind": 1222,
      "ming": 1223,
      "pin": 1224,
      "ses": 1225,
      "sbur": 1226,
      "uct": 1227,
      "ular": 1228,
      "vo": 1229,
      "thor": 1230,
      "thod": 1231,
      "increas": 1232,
      "requi": 1233,
      "reach": 1234,
      "ene": 1235,
      "enorm": 1236,
      "ouble": 1237,
      "erve": 1238,
      "ory": 1239,
      "method": 1240,
      "moment": 1241,
      "along": 1242,
      "place": 1243,
      "sec": 1244,
      "sever": 1245,
      "advis": 1246,
      "ations": 1247,
      "shif": 1248,
      "til": 1249,
      "ties": 1250,
      "tice": 1251,
      "kept": 1252,
      "ended": 1253,
      "impossible": 1254,
      "compe": 1255,
      "prefer": 1256,
      "thereby": 1257,
      "until": 1258,
      "feat": 1259,
      "fered": 1260,
      "vening": 1261,
      "dri": 1262,
      "drive": 1263,
      "trouble": 1264,
      "sometimes": 1265,
      "apparently": 1266,
      "draws": 1267,
      "goes": 1268,
      "reader": 1269,
      "giving": 1270,
      "bringing": 1271,
      "difficulties": 1272,
      "END": 1273,
      "ENT": 1274,
      "begins": 1275,
      "respect": 1276,
      "answer": 1277,
      "seems": 1278,
      "taking": 1279,
      "practical": 1280,
      "worth": 1281,
      "reasons": 1282,
      "throughout": 1283,
      "manoeuvres": 1284,
      "careful": 1285,
      "ordin": 1286,
      "Notice": 1287,
      "opposite": 1288,
      "previously": 1289,
      "whole": 1290,
      "carry": 1291,
      "leaves": 1292,
      "nature": 1293,
      "fail": 1294,
      "remains": 1295,
      "examine": 1296,
      "certain": 1297,
      "turn": 1298,
      "intervening": 1299,
      "possibilities": 1300,
      "Example": 1301,
      "fortun": 1302,
      "perfectly": 1303,
      "Besides": 1304,
      "judgment": 1305,
      "enormous": 1306,
      "several": 1307,
      "advisable": 1308,
      "47": 1309,
      "49": 1310,
      "50": 1311,
      "52": 1312,
      "53": 1313,
      "56": 1314,
      "57": 1315,
      "Best": 1316,
      "Ge": 1317,
      "IV": 1318,
      "LOP": 1319,
      "QUE": 1320,
      "Se": 1321,
      "Sir": 1322,
      "TER": 1323,
      "TAC": 1324,
      "aut": 1325,
      "create": 1326,
      "ew": 1327,
      "ele": 1328,
      "four": 1329,
      "igin": 1330,
      "wa": 1331,
      "want": 1332,
      "ised": 1333,
      "resi": 1334,
      "offered": 1335,
      "lled": 1336,
      "become": 1337,
      "beaut": 1338,
      "orge": 1339,
      "origin": 1340,
      "edom": 1341,
      "meet": 1342,
      "moving": 1343,
      "mobil": 1344,
      "let": 1345,
      "ential": 1346,
      "poses": 1347,
      "although": 1348,
      "placed": 1349,
      "sees": 1350,
      "tact": 1351,
      "advers": 1352,
      "art": 1353,
      "why": 1354,
      "omas": 1355,
      "const": 1356,
      "tersbur": 1357,
      "vana": 1358,
      "advanced": 1359,
      "capt": 1360,
      "actually": 1361,
      "ively": 1362,
      "ulti": 1363,
      "aking": 1364,
      "drawn": 1365,
      "tra": 1366,
      "tries": 1367,
      "essential": 1368,
      "Thomas": 1369,
      "exchanged": 1370,
      "ENCE": 1371,
      "viz": 1372,
      "properly": 1373,
      "intended": 1374,
      "practice": 1375,
      "greater": 1376,
      "easier": 1377,
      "ava": 1378,
      "doubl": 1379,
      "hole": 1380,
      "stopp": 1381,
      "continue": 1382,
      "Once": 1383,
      "reality": 1384,
      "learn": 1385,
      "ATTAC": 1386,
      "looks": 1387,
      "Castle": 1388,
      "examination": 1389,
      "solid": 1390,
      "result": 1391,
      "accomplished": 1392,
      "CHAP": 1393,
      "mark": 1394,
      "strategical": 1395,
      "ITI": 1396,
      "occur": 1397,
      "effective": 1398,
      "Before": 1399,
      "Havana": 1400,
      "else": 1401,
      "freedom": 1402,
      "attempt": 1403,
      "compensation": 1404,
      "natural": 1405,
      "system": 1406,
      "Petersbur": 1407,
      "increases": 1408,
      "secure": 1409,
      "shift": 1410,
      "George": 1411,
      "QUEEN": 1412,
      "resign": 1413,
      "mobility": 1414,
      "adversary": 1415,
      "ATTACK": 1416,
      "CHAPTER": 1417,
      "Petersburg": 1418,
      "!!": 1419,
      ").": 1420,
      "54": 1421,
      "By": 1422,
      "CI": 1423,
      "CL": 1424,
      "DD": 1425,
      "EZ": 1426,
      "FENCE": 1427,
      "GH": 1428,
      "How": 1429,
      "IGH": 1430,
      "KN": 1431,
      "Let": 1432,
      "New": 1433,
      "OK": 1434,
      "PO": 1435,
      "Play": 1436,
      "RU": 1437,
      "SS": 1438,
      "ST": 1439,
      "Since": 1440,
      "Un": 1441,
      "Ver": 1442,
      "WI": 1443,
      "Yor": 1444,
      "_The": 1445,
      "_fix": 1446,
      "cla": 1447,
      "cut": 1448,
      "creat": 1449,
      "hence": 1450,
      "ip": 1451,
      "ild": 1452,
      "iar": 1453,
      "lim": 1454,
      "lod": 1455,
      "norm": 1456,
      "oy": 1457,
      "oom": 1458,
      "pion": 1459,
      "ring": 1460,
      "rup": 1461,
      "room": 1462,
      "sound": 1463,
      "tion": 1464,
      "wish": 1465,
      "inf": 1466,
      "invari": 1467,
      "ising": 1468,
      "relat": 1469,
      "itut": 1470,
      "enough": 1471,
      "ingly": 1472,
      "sta": 1473,
      "edingly": 1474,
      "devo": 1475,
      "whate": 1476,
      "positional": 1477,
      "ction": 1478,
      "omin": 1479,
      "within": 1480,
      "allow": 1481,
      "note": 1482,
      "notes": 1483,
      "notice": 1484,
      "util": 1485,
      "ship": 1486,
      "wered": 1487,
      "concer": 1488,
      "tied": 1489,
      "advances": 1490,
      "gains": 1491,
      "coming": 1492,
      "attacks": 1493,
      "among": 1494,
      "unquestion": 1495,
      "190": 1496,
      "1914": 1497,
      "trap": 1498,
      "uring": 1499,
      "teach": 1500,
      "something": 1501,
      "finish": 1502,
      "extreme": 1503,
      "weaker": 1504,
      "paraly": 1505,
      "partic": 1506,
      "whenever": 1507,
      "That": 1508,
      "cedure": 1509,
      "Here": 1510,
      "oughly": 1511,
      "prevents": 1512,
      "preventing": 1513,
      "procedure": 1514,
      "typ": 1515,
      "beginning": 1516,
      "answered": 1517,
      "binste": 1518,
      "disast": 1519,
      "dislod": 1520,
      "disrup": 1521,
      "opposition_": 1522,
      "worse": 1523,
      "exceedingly": 1524,
      "understand": 1525,
      "valu": 1526,
      "handling": 1527,
      "leaving": 1528,
      "offer": 1529,
      "making": 1530,
      "continuation": 1531,
      "contro": 1532,
      "realise": 1533,
      "succeed": 1534,
      "INGS": 1535,
      "masters": 1536,
      "ference": 1537,
      "matters": 1538,
      "demonstr": 1539,
      "breaking": 1540,
      "ROM": 1541,
      "ROOK": 1542,
      "single": 1543,
      "solut": 1544,
      "DEFENCE": 1545,
      "march": 1546,
      "prepared": 1547,
      "grad": 1548,
      "decided": 1549,
      "Rubinste": 1550,
      "high": 1551,
      "minus": 1552,
      "expected": 1553,
      "continues": 1554,
      "PAWNS": 1555,
      "purposes": 1556,
      "slight": 1557,
      "avoid": 1558,
      "thoroughly": 1559,
      "compelled": 1560,
      "respectively": 1561,
      "fortunately": 1562,
      "IVE": 1563,
      "LOPEZ": 1564,
      "wait": 1565,
      "original": 1566,
      "constitut": 1567,
      "ultimate": 1568,
      "However": 1569,
      "IGHT": 1570,
      "KNIGHT": 1571,
      "Played": 1572,
      "RUY": 1573,
      "Very": 1574,
      "York": 1575,
      "normal": 1576,
      "invariably": 1577,
      "whatever": 1578,
      "particular": 1579,
      "Rubinstein": 1580,
      "*/": 1581,
      ".:": 1582,
      "/*": 1583,
      "55": 1584,
      "58": 1585,
      "59": 1586,
      "60": 1587,
      "Ale": 1588,
      "BIT": 1589,
      "Com": 1590,
      "DI": 1591,
      "Gam": 1592,
      "II": 1593,
      "IS": 1594,
      "IDD": 1595,
      "LA": 1596,
      "Lope": 1597,
      "ME": 1598,
      "My": 1599,
      "Mast": 1600,
      "MIDD": 1601,
      "OME": 1602,
      "SOME": 1603,
      "UT": 1604,
      "Whe": 1605,
      "_a": 1606,
      "aid": 1607,
      "aint": 1608,
      "bu": 1609,
      "bas": 1610,
      "cou": 1611,
      "cul": 1612,
      "cus": 1613,
      "cident": 1614,
      "domin": 1615,
      "during": 1616,
      "fif": 1617,
      "fam": 1618,
      "fast": 1619,
      "gu": 1620,
      "ges": 1621,
      "gone": 1622,
      "gical": 1623,
      "ian": 1624,
      "ila": 1625,
      "jes": 1626,
      "just": 1627,
      "jun": 1628,
      "lo": 1629,
      "mit": 1630,
      "mer": 1631,
      "ns": 1632,
      "ore": 1633,
      "rate": 1634,
      "sion": 1635,
      "serve": 1636,
      "ures": 1637,
      "vie": 1638,
      "wing": 1639,
      "went": 1640,
      "thir": 1641,
      "inv": 1642,
      "theory": 1643,
      "repl": 1644,
      "really": 1645,
      "tory": 1646,
      "towards": 1647,
      "ves": 1648,
      "state": 1649,
      "stance": 1650,
      "laid": 1651,
      "lling": 1652,
      "chi": 1653,
      "cho": 1654,
      "chess": 1655,
      "deci": 1656,
      "set": 1657,
      "add": 1658,
      "ars": 1659,
      "arly": 1660,
      "six": 1661,
      "ational": 1662,
      "They": 1663,
      "vert": 1664,
      "ished": 1665,
      "conven": 1666,
      "conjun": 1667,
      "iful": 1668,
      "ified": 1669,
      "tie": 1670,
      "ends": 1671,
      "ication": 1672,
      "gained": 1673,
      "compar": 1674,
      "ived": 1675,
      "preference": 1676,
      "quaint": 1677,
      "pless": 1678,
      "attacked": 1679,
      "save": 1680,
      "Incident": 1681,
      "ulty": 1682,
      "advantageous": 1683,
      "anything": 1684,
      "ments": 1685,
      "mentary": 1686,
      "appe": 1687,
      "acquaint": 1688,
      "losing": 1689,
      "cially": 1690,
      "iliar": 1691,
      "backward": 1692,
      "INED": 1693,
      "difficulty": 1694,
      "indicated": 1695,
      "resis": 1696,
      "new": 1697,
      "need": 1698,
      "neare": 1699,
      "manner": 1700,
      "accur": 1701,
      "poor": 1702,
      "rench": 1703,
      "agree": 1704,
      "GAMBIT": 1705,
      "quickest": 1706,
      "lines": 1707,
      "forms": 1708,
      "lateral": 1709,
      "double": 1710,
      "conduct": 1711,
      "home": 1712,
      "demand": 1713,
      "overlook": 1714,
      "complic": 1715,
      "complicated": 1716,
      "dangerous": 1717,
      "known": 1718,
      "knowled": 1719,
      "ATE": 1720,
      "ATIVE": 1721,
      "range": 1722,
      "took": 1723,
      "common": 1724,
      "faulty": 1725,
      "helpless": 1726,
      "superiority": 1727,
      "explain": 1728,
      "consist": 1729,
      "consists": 1730,
      "results": 1731,
      "accomplishes": 1732,
      "DECL": 1733,
      "holds": 1734,
      "successful": 1735,
      "assume": 1736,
      "leads": 1737,
      "happen": 1738,
      "Ruy": 1739,
      "everything": 1740,
      "continued": 1741,
      "hopeless": 1742,
      "exerc": 1743,
      "applied": 1744,
      "application": 1745,
      "conditions": 1746,
      "Also": 1747,
      "Chajes": 1748,
      "enemy": 1749,
      "preferable": 1750,
      "driven": 1751,
      "drives": 1752,
      "elementary": 1753,
      "beautiful": 1754,
      "capture": 1755,
      "doubled": 1756,
      "stopped": 1757,
      "WITH": 1758,
      "limit": 1759,
      "pionship": 1760,
      "influ": 1761,
      "relative": 1762,
      "stale": 1763,
      "devote": 1764,
      "utilise": 1765,
      "unquestionably": 1766,
      "extremely": 1767,
      "dislodge": 1768,
      "valuable": 1769,
      "controlling": 1770,
      "demonstrates": 1771,
      "solute": 1772,
      "gradually": 1773,
      "highly": 1774,
      "constitutes": 1775,
      "Gambit": 1776,
      "ISH": 1777,
      "Lopez": 1778,
      "Masters": 1779,
      "MIDDLE": 1780,
      "Whether": 1781,
      "build": 1782,
      "familiar": 1783,
      "ilable": 1784,
      "logical": 1785,
      "oretic": 1786,
      "view": 1787,
      "decide": 1788,
      "convenient": 1789,
      "conjunction": 1790,
      "Incidentally": 1791,
      "knowledge": 1792,
      "DECLINED": 1793,
      ".,": 1794,
      "61": 1795,
      "All": 1796,
      "Ano": 1797,
      "BISH": 1798,
      "Ch": 1799,
      "Def": 1800,
      "Ev": 1801,
      "FF": 1802,
      "FR": 1803,
      "FU": 1804,
      "FROM": 1805,
      "French": 1806,
      "HO": 1807,
      "IR": 1808,
      "Kup": 1809,
      "Me": 1810,
      "Mr": 1811,
      "Mor": 1812,
      "Nor": 1813,
      "Nie": 1814,
      "NING": 1815,
      "OR": 1816,
      "One": 1817,
      "OUT": 1818,
      "PR": 1819,
      "Pr": 1820,
      "Pre": 1821,
      "PLA": 1822,
      "Sh": 1823,
      "San": 1824,
      "SITI": 1825,
      "TO": 1826,
      "Taking": 1827,
      "WIN": 1828,
      "Yet": 1829,
      "bat": 1830,
      "ben": 1831,
      "bor": 1832,
      "bast": 1833,
      "ding": 1834,
      "day": 1835,
      "fat": 1836,
      "fac": 1837,
      "fers": 1838,
      "ging": 1839,
      "hin": 1840,
      "ile": 1841,
      "ict": 1842,
      "illust": 1843,
      "illustration": 1844,
      "ible": 1845,
      "kward": 1846,
      "knew": 1847,
      "les": 1848,
      "low": 1849,
      "lies": 1850,
      "mz": 1851,
      "mas": 1852,
      "mpionship": 1853,
      "nor": 1854,
      "ners": 1855,
      "old": 1856,
      "pay": 1857,
      "pts": 1858,
      "pure": 1859,
      "page": 1860,
      "ror": 1861,
      "sp": 1862,
      "sort": 1863,
      "tual": 1864,
      "uce": 1865,
      "usu": 1866,
      "inion": 1867,
      "ints": 1868,
      "indirectly": 1869,
      "instance": 1870,
      "theoretic": 1871,
      "anti": 1872,
      "anwhile": 1873,
      "atory": 1874,
      "reg": 1875,
      "retake": 1876,
      "relin": 1877,
      "return": 1878,
      "revert": 1879,
      "itch": 1880,
      "stres": 1881,
      "start": 1882,
      "below": 1883,
      "chin": 1884,
      "error": 1885,
      "ander": 1886,
      "assa": 1887,
      "ions": 1888,
      "esca": 1889,
      "espe": 1890,
      "edge": 1891,
      "held": 1892,
      "While": 1893,
      "met": 1894,
      "mere": 1895,
      "meanwhile": 1896,
      "option": 1897,
      "opinion": 1898,
      "awkward": 1899,
      "deter": 1900,
      "enter": 1901,
      "posal": 1902,
      "placing": 1903,
      "gave": 1904,
      "around": 1905,
      "white": 1906,
      "forward": 1907,
      "sight": 1908,
      "extra": 1909,
      "fold": 1910,
      "gest": 1911,
      "conc": 1912,
      "conce": 1913,
      "confin": 1914,
      "concent": 1915,
      "condem": 1916,
      "abil": 1917,
      "absolute": 1918,
      "key": 1919,
      "ics": 1920,
      "icing": 1921,
      "ictory": 1922,
      "imin": 1923,
      "impres": 1924,
      "improve": 1925,
      "came": 1926,
      "compare": 1927,
      "prepar": 1928,
      "prefers": 1929,
      "ources": 1930,
      "quish": 1931,
      "ploy": 1932,
      "derive": 1933,
      "amount": 1934,
      "unit": 1935,
      "undeveloped": 1936,
      "became": 1937,
      "Intern": 1938,
      "change": 1939,
      "1918": 1940,
      "trans": 1941,
      "tried": 1942,
      "cover": 1943,
      "brill": 1944,
      "simpl": 1945,
      "petual": 1946,
      "weakening": 1947,
      "parts": 1948,
      "drawback": 1949,
      "gover": 1950,
      "struct": 1951,
      "strict": 1952,
      "cip": 1953,
      "obtains": 1954,
      "prevented": 1955,
      "exchanges": 1956,
      "proof": 1957,
      "INCI": 1958,
      "plans": 1959,
      "ENCH": 1960,
      "ease": 1961,
      "atively": 1962,
      "resources": 1963,
      "nearly": 1964,
      "keeps": 1965,
      "seemed": 1966,
      "discus": 1967,
      "disposal": 1968,
      "throw": 1969,
      "points": 1970,
      "ages": 1971,
      "anted": 1972,
      "sooner": 1973,
      "combined": 1974,
      "idently": 1975,
      "defends": 1976,
      "defended": 1977,
      "reasoning": 1978,
      "stood": 1979,
      "understood": 1980,
      "objection": 1981,
      "manoeuvring": 1982,
      "frontal": 1983,
      "mainly": 1984,
      "event": 1985,
      "perpetual": 1986,
      "blunder": 1987,
      "freely": 1988,
      "odd": 1989,
      "offers": 1990,
      "offensive": 1991,
      "combinations": 1992,
      "efit": 1993,
      "mistakes": 1994,
      "misses": 1995,
      "ounded": 1996,
      "immediate": 1997,
      "completed": 1998,
      "evidently": 1999,
      "numer": 2000,
      "realised": 2001,
      "Castling": 2002,
      "Castled": 2003,
      "standard": 2004,
      "necessity": 2005,
      "Against": 2006,
      "OPEN": 2007,
      "expounded": 2008,
      "exception": 2009,
      "doubtful": 2010,
      "sacrificing": 2011,
      "puts": 2012,
      "curious": 2013,
      "granted": 2014,
      "occas": 2015,
      "analyse": 2016,
      "analysed": 2017,
      "analysis": 2018,
      "haps": 2019,
      "happens": 2020,
      "possibility": 2021,
      "thinking": 2022,
      "Having": 2023,
      "REL": 2024,
      "attempts": 2025,
      "subject": 2026,
      "supported": 2027,
      "slow": 2028,
      "speak": 2029,
      "remem": 2030,
      "exerts": 2031,
      "weakened": 2032,
      "proceeding": 2033,
      "avoided": 2034,
      "commanding": 2035,
      "Championship": 2036,
      "clearly": 2037,
      "foundation": 2038,
      "hardly": 2039,
      "pinned": 2040,
      "required": 2041,
      "requires": 2042,
      "features": 2043,
      "driving": 2044,
      "ENDINGS": 2045,
      "ordination": 2046,
      "failing": 2047,
      "Sebast": 2048,
      "tactics": 2049,
      "train": 2050,
      "avail": 2051,
      "available": 2052,
      "POSITI": 2053,
      "clas": 2054,
      "created": 2055,
      "traps": 2056,
      "teacher": 2057,
      "typical": 2058,
      "disaster": 2059,
      "offering": 2060,
      "waiting": 2061,
      "ultimately": 2062,
      "Compare": 2063,
      "fifty": 2064,
      "third": 2065,
      "invol": 2066,
      "replies": 2067,
      "chick": 2068,
      "choice": 2069,
      "resist": 2070,
      "nearer": 2071,
      "complications": 2072,
      "happened": 2073,
      "influence": 2074,
      "Another": 2075,
      "BISHOP": 2076,
      "Chess": 2077,
      "Defence": 2078,
      "Evidently": 2079,
      "FRENCH": 2080,
      "Kupchick": 2081,
      "Niemz": 2082,
      "PRINCI": 2083,
      "Prepar": 2084,
      "PLAY": 2085,
      "Should": 2086,
      "battle": 2087,
      "benefit": 2088,
      "fatal": 2089,
      "purely": 2090,
      "usual": 2091,
      "anticip": 2092,
      "relinquish": 2093,
      "stress": 2094,
      "escape": 2095,
      "especially": 2096,
      "International": 2097,
      "Sebastian": 2098,
      "POSITION": 2099,
      "PRINCIPLE": 2100,
      "!;": 2101,
      ",\"": 2102,
      ",[": 2103,
      "62": 2104,
      "63": 2105,
      "64": 2106,
      "65": 2107,
      "66": 2108,
      "67": 2109,
      "81": 2110,
      ":--": 2111,
      "Ap": 2112,
      "AIN": 2113,
      "ASS": 2114,
      "Ber": 2115,
      "Bur": 2116,
      "Blan": 2117,
      "Bold": 2118,
      "CT": 2119,
      "Con": 2120,
      "Clu": 2121,
      "CENT": 2122,
      "De": 2123,
      "En": 2124,
      "ECE": 2125,
      "Fin": 2126,
      "First": 2127,
      "FIR": 2128,
      "FOR": 2129,
      "GY": 2130,
      "Gener": 2131,
      "GEN": 2132,
      "Get": 2133,
      "Hast": 2134,
      "Hence": 2135,
      "IC": 2136,
      "ION": 2137,
      "IECE": 2138,
      "K2": 2139,
      "Kost": 2140,
      "Mat": 2141,
      "Mis": 2142,
      "Many": 2143,
      "Mies": 2144,
      "MATE": 2145,
      "OT": 2146,
      "Other": 2147,
      "PE": 2148,
      "Per": 2149,
      "Par": 2150,
      "PROM": 2151,
      "PIECE": 2152,
      "Q3": 2153,
      "RT": 2154,
      "RTHE": 2155,
      "RATE": 2156,
      "SI": 2157,
      "So": 2158,
      "Sup": 2159,
      "Ta": 2160,
      "Two": 2161,
      "TRO": 2162,
      "VAL": 2163,
      "Winter": 2164,
      "_b": 2165,
      "_keep": 2166,
      "_via": 2167,
      "_When": 2168,
      "af": 2169,
      "au": 2170,
      "ain": 2171,
      "aight": 2172,
      "afr": 2173,
      "ail": 2174,
      "bly": 2175,
      "bal": 2176,
      "cal": 2177,
      "cred": 2178,
      "clin": 2179,
      "dd": 2180,
      "ded": 2181,
      "dwell": 2182,
      "dimin": 2183,
      "equ": 2184,
      "ets": 2185,
      "ecut": 2186,
      "fall": 2187,
      "fut": 2188,
      "fil": 2189,
      "gor": 2190,
      "greate": 2191,
      "hy": 2192,
      "hop": 2193,
      "har": 2194,
      "ig": 2195,
      "ily": 2196,
      "ices": 2197,
      "iant": 2198,
      "ifold": 2199,
      "jor": 2200,
      "ken": 2201,
      "lation": 2202,
      "light": 2203,
      "late": 2204,
      "lming": 2205,
      "mined": 2206,
      "none": 2207,
      "ot": 2208,
      "ov": 2209,
      "oken": 2210,
      "pi": 2211,
      "pages": 2212,
      "phy": 2213,
      "rm": 2214,
      "ris": 2215,
      "rul": 2216,
      "rous": 2217,
      "rap": 2218,
      "rated": 2219,
      "sc": 2220,
      "ser": 2221,
      "sour": 2222,
      "tit": 2223,
      "tes": 2224,
      "twi": 2225,
      "tal": 2226,
      "tant": 2227,
      "tends": 2228,
      "ught": 2229,
      "ured": 2230,
      "vided": 2231,
      "victory": 2232,
      "xim": 2233,
      "xander": 2234,
      "ze": 2235,
      "inact": 2236,
      "intr": 2237,
      "intact": 2238,
      "anced": 2239,
      "ons": 2240,
      "oning": 2241,
      "onwards": 2242,
      "ongest": 2243,
      "ises": 2244,
      "ists": 2245,
      "isol": 2246,
      "isted": 2247,
      "rela": 2248,
      "reti": 2249,
      "relie": 2250,
      "recover": 2251,
      "restrict": 2252,
      "relation": 2253,
      "itic": 2254,
      "itten": 2255,
      "enly": 2256,
      "ensu": 2257,
      "ences": 2258,
      "enced": 2259,
      "ings": 2260,
      "star": 2261,
      "labor": 2262,
      "becoming": 2263,
      "chn": 2264,
      "char": 2265,
      "cham": 2266,
      "andoning": 2267,
      "assing": 2268,
      "es_": 2269,
      "esse": 2270,
      "ed_": 2271,
      "owitch": 2272,
      "osen": 2273,
      "lem": 2274,
      "opted": 2275,
      "awak": 2276,
      "deed": 2277,
      "destr": 2278,
      "defeat": 2279,
      "deploy": 2280,
      "ention": 2281,
      "ented": 2282,
      "enters": 2283,
      "entry": 2284,
      "posing": 2285,
      "posed": 2286,
      "alone": 2287,
      "almost": 2288,
      "separ": 2289,
      "gar": 2290,
      "adopted": 2291,
      "arise": 2292,
      "arising": 2293,
      "forts": 2294,
      "ham": 2295,
      "cted": 2296,
      "withstand": 2297,
      "execut": 2298,
      "exposed": 2299,
      "ared": 2300,
      "notic": 2301,
      "utions": 2302,
      "whichever": 2303,
      "gets": 2304,
      "shut": 2305,
      "suic": 2306,
      "sudd": 2307,
      "prof": 2308,
      "prom": 2309,
      "conf": 2310,
      "consolid": 2311,
      "tible": 2312,
      "abandoning": 2313,
      "ateur": 2314,
      "icate": 2315,
      "iment": 2316,
      "cautions": 2317,
      "acts": 2318,
      "acter": 2319,
      "comments": 2320,
      "ives": 2321,
      "pret": 2322,
      "preci": 2323,
      "precautions": 2324,
      "iding": 2325,
      "quite": 2326,
      "pled": 2327,
      "major": 2328,
      "maxim": 2329,
      "safer": 2330,
      "Queening": 2331,
      "reatening": 2332,
      "outside": 2333,
      "amp": 2334,
      "amoun": 2335,
      "amples": 2336,
      "amateur": 2337,
      "fray": 2338,
      "unable": 2339,
      "unten": 2340,
      "unlike": 2341,
      "unnecessary": 2342,
      "unsound": 2343,
      "unusual": 2344,
      "fear": 2345,
      "feel": 2346,
      "useless": 2347,
      "Instead": 2348,
      "obvi": 2349,
      "obably": 2350,
      "changed": 2351,
      "changing": 2352,
      "197": 2353,
      "1919": 2354,
      "1910": 2355,
      "1911": 2356,
      "ult": 2357,
      "upon": 2358,
      "others": 2359,
      "irre": 2360,
      "defences": 2361,
      "using": 2362,
      "used": 2363,
      "threats": 2364,
      "tru": 2365,
      "anywhere": 2366,
      "techn": 2367,
      "develops": 2368,
      "cost": 2369,
      "somewhere": 2370,
      "final": 2371,
      "finesse": 2372,
      "brack": 2373,
      "broken": 2374,
      "122": 2375,
      "apply": 2376,
      "apart": 2377,
      "appreci": 2378,
      "paramount": 2379,
      "Though": 2380,
      "Threatening": 2381,
      "match": 2382,
      "mated": 2383,
      "squared": 2384,
      "varies": 2385,
      "straight": 2386,
      "strongest": 2387,
      "strives": 2388,
      "courses": 2389,
      "divided": 2390,
      "latter": 2391,
      "ilit": 2392,
      "possibly": 2393,
      "prolong": 2394,
      "process": 2395,
      "whelming": 2396,
      "INITI": 2397,
      "beginners": 2398,
      "vide": 2399,
      "violat": 2400,
      "princip": 2401,
      "manage": 2402,
      "manifold": 2403,
      "27th": 2404,
      "disagree": 2405,
      "distant": 2406,
      "thrust": 2407,
      "large": 2408,
      "selves": 2409,
      "ection": 2410,
      "rence": 2411,
      "ideal": 2412,
      "passing": 2413,
      "world": 2414,
      "themselves": 2415,
      "identical": 2416,
      "desi": 2417,
      "desper": 2418,
      "deserve": 2419,
      "former": 2420,
      "formation": 2421,
      "careless": 2422,
      "directed": 2423,
      "arrive": 2424,
      "arrived": 2425,
      "maintain": 2426,
      "Note": 2427,
      "permit": 2428,
      "perhaps": 2429,
      "opposed": 2430,
      "overcome": 2431,
      "overwhelming": 2432,
      "pointed": 2433,
      "initiative_": 2434,
      "posting": 2435,
      "safely": 2436,
      "efforts": 2437,
      "missed": 2438,
      "considers": 2439,
      "considering": 2440,
      "considerable": 2441,
      "considerably": 2442,
      "finding": 2443,
      "critic": 2444,
      "cramp": 2445,
      "contrary": 2446,
      "accordance": 2447,
      "knowing": 2448,
      "learned": 2449,
      "problem": 2450,
      "looking": 2451,
      "demonstrate": 2452,
      "Castles": 2453,
      "face": 2454,
      "written": 2455,
      "stands": 2456,
      "correct": 2457,
      "series": 2458,
      "remaining": 2459,
      "tempt": 2460,
      "PART": 2461,
      "consisted": 2462,
      "consistent": 2463,
      "checks": 2464,
      "resulting": 2465,
      "ERAL": 2466,
      "putting": 2467,
      "trying": 2468,
      "holding": 2469,
      "seriously": 2470,
      "strategy": 2471,
      "strategically": 2472,
      "grand": 2473,
      "turning": 2474,
      "assuming": 2475,
      "decreas": 2476,
      "decides": 2477,
      "proved": 2478,
      "And": 2479,
      "Behind": 2480,
      "Examples": 2481,
      "RECT": 2482,
      "frequent": 2483,
      "minor": 2484,
      "subsequent": 2485,
      "submit": 2486,
      "fixed": 2487,
      "fights": 2488,
      "fighting": 2489,
      "lude": 2490,
      "speaking": 2491,
      "protects": 2492,
      "protected": 2493,
      "naturally": 2494,
      "favourable": 2495,
      "systems": 2496,
      "Forced": 2497,
      "founded": 2498,
      "reaching": 2499,
      "reaches": 2500,
      "reached": 2501,
      "compel": 2502,
      "preferred": 2503,
      "feature": 2504,
      "ENDING": 2505,
      "ordinary": 2506,
      "failure": 2507,
      "certainty": 2508,
      "Second": 2509,
      "eleven": 2510,
      "wanted": 2511,
      "doubling": 2512,
      "stopping": 2513,
      "occurs": 2514,
      "occurrence": 2515,
      "resigned": 2516,
      "ATTACKING": 2517,
      "STRATE": 2518,
      "Unfortunately": 2519,
      "_fix_": 2520,
      "_fixed_": 2521,
      "claim": 2522,
      "oys": 2523,
      "concerted": 2524,
      "concerned": 2525,
      "1907": 2526,
      "1909": 2527,
      "finishes": 2528,
      "paralyse": 2529,
      "paralysed": 2530,
      "disastrous": 2531,
      "disrupted": 2532,
      "slightly": 2533,
      "KNIGHTS": 2534,
      "particularly": 2535,
      "Alechin": 2536,
      "Alexander": 2537,
      "DIFF": 2538,
      "DIRECT": 2539,
      "_a_": 2540,
      "basis": 2541,
      "based": 2542,
      "couple": 2543,
      "coupled": 2544,
      "culation": 2545,
      "dominating": 2546,
      "guide": 2547,
      "justified": 2548,
      "merits": 2549,
      "statement": 2550,
      "sixth": 2551,
      "comparatively": 2552,
      "appears": 2553,
      "acquainted": 2554,
      "needs": 2555,
      "needed": 2556,
      "accurate": 2557,
      "accurately": 2558,
      "conducted": 2559,
      "demanded": 2560,
      "overlooked": 2561,
      "exercise": 2562,
      "limited": 2563,
      "stalemate": 2564,
      "familiarise": 2565,
      "FURTHE": 2566,
      "HOW": 2567,
      "Morphy": 2568,
      "Probably": 2569,
      "WINNING": 2570,
      "facilit": 2571,
      "hinder": 2572,
      "illustrate": 2573,
      "masse": 2574,
      "theoretically": 2575,
      "regular": 2576,
      "assault": 2577,
      "determined": 2578,
      "conclude": 2579,
      "confined": 2580,
      "condemns": 2581,
      "ability": 2582,
      "absolutely": 2583,
      "impression": 2584,
      "compared": 2585,
      "preparing": 2586,
      "transfer": 2587,
      "brilliant": 2588,
      "simplified": 2589,
      "governs": 2590,
      "discussion": 2591,
      "numerous": 2592,
      "OPENINGS": 2593,
      "exceptional": 2594,
      "occasion": 2595,
      "RELATIVE": 2596,
      "remember": 2597,
      "class": 2598,
      "involves": 2599,
      "resistance": 2600,
      "Niemzowitch": 2601,
      "Preparatory": 2602,
      "anticipated": 2603,
      "PRINCIPLES": 2604,
      "Apparently": 2605,
      "Berlin": 2606,
      "Burn": 2607,
      "Blanco": 2608,
      "Consequently": 2609,
      "Club": 2610,
      "CENTRE": 2611,
      "Declin": 2612,
      "Finally": 2613,
      "FIRST": 2614,
      "FORCE": 2615,
      "Generally": 2616,
      "GENERAL": 2617,
      "Hastings": 2618,
      "Kostic": 2619,
      "Match": 2620,
      "Mistake": 2621,
      "Mieses": 2622,
      "Otherwise": 2623,
      "PIECES": 2624,
      "Suppose": 2625,
      "Take": 2626,
      "VALUE": 2627,
      "_b_": 2628,
      "_via_": 2629,
      "affor": 2630,
      "author": 2631,
      "afraid": 2632,
      "balanced": 2633,
      "credit": 2634,
      "future": 2635,
      "files": 2636,
      "greatest": 2637,
      "hoping": 2638,
      "harassing": 2639,
      "rules": 2640,
      "rapid": 2641,
      "source": 2642,
      "twice": 2643,
      "isolation": 2644,
      "relax": 2645,
      "retire": 2646,
      "ensures": 2647,
      "started": 2648,
      "character": 2649,
      "awaken": 2650,
      "destroys": 2651,
      "separately": 2652,
      "execution": 2653,
      "noticed": 2654,
      "suicide": 2655,
      "suddenly": 2656,
      "consolidates": 2657,
      "majority": 2658,
      "maximum": 2659,
      "amounts": 2660,
      "untenable": 2661,
      "obvious": 2662,
      "brackets": 2663,
      "applying": 2664,
      "prolonged": 2665,
      "INITIATIVE": 2666,
      "violates": 2667,
      "disagreeable": 2668,
      "desperate": 2669,
      "deserves": 2670,
      "criticised": 2671,
      "STRATEGY": 2672,
      "FURTHER": 2673,
      "Declined": 2674,
      ".\"": 2675,
      "119": 2676,
      "110": 2677,
      "113": 2678,
      "114": 2679,
      "118": 2680,
      "112": 2681,
      "116": 2682,
      "117": 2683,
      "115": 2684,
      "219": 2685,
      "210": 2686,
      "213": 2687,
      "214": 2688,
      "218": 2689,
      "212": 2690,
      "216": 2691,
      "217": 2692,
      "215": 2693,
      "223": 2694,
      "224": 2695,
      "220": 2696,
      "211": 2697,
      "68": 2698,
      "69": 2699,
      "70": 2700,
      "71": 2701,
      "72": 2702,
      "73": 2703,
      "74": 2704,
      "75": 2705,
      "76": 2706,
      "77": 2707,
      "78": 2708,
      "79": 2709,
      "80": 2710,
      "82": 2711,
      "83": 2712,
      "84": 2713,
      "85": 2714,
      "86": 2715,
      "87": 2716,
      "88": 2717,
      "89": 2718,
      "90": 2719,
      "91": 2720,
      "92": 2721,
      "93": 2722,
      "94": 2723,
      "95": 2724,
      "96": 2725,
      "97": 2726,
      "98": 2727,
      "99": 2728,
      ":[": 2729,
      "AB": 2730,
      "AF": 2731,
      "AG": 2732,
      "AI": 2733,
      "AR": 2734,
      "AS": 2735,
      "Ad": 2736,
      "Ay": 2737,
      "B5": 2738,
      "BE": 2739,
      "BT": 2740,
      "BY": 2741,
      "Bor": 2742,
      "BLE": 2743,
      "Bet": 2744,
      "CR": 2745,
      "Cer": 2746,
      "Cal": 2747,
      "Cut": 2748,
      "CEN": 2749,
      "City": 2750,
      "CON": 2751,
      "CUT": 2752,
      "CAR": 2753,
      "Di": 2754,
      "DAM": 2755,
      "DIN": 2756,
      "DAN": 2757,
      "E_": 2758,
      "Ei": 2759,
      "Every": 2760,
      "Even": 2761,
      "Each": 2762,
      "ELOP": 2763,
      "ESS": 2764,
      "FL": 2765,
      "Fe": 2766,
      "Fo": 2767,
      "Four": 2768,
      "Fur": 2769,
      "FIN": 2770,
      "Fail": 2771,
      "GU": 2772,
      "Go": 2773,
      "GER": 2774,
      "HI": 2775,
      "IENT": 2776,
      "IBLE": 2777,
      "K1": 2778,
      "K3": 2779,
      "Ke": 2780,
      "Kre": 2781,
      "LL": 2782,
      "LT": 2783,
      "Lu": 2784,
      "Lon": 2785,
      "Lod": 2786,
      "LAN": 2787,
      "Mc": 2788,
      "Man": 2789,
      "MPLE": 2790,
      "Most": 2791,
      "Much": 2792,
      "MEN": 2793,
      "MENT": 2794,
      "Making": 2795,
      "MASS": 2796,
      "MOT": 2797,
      "Nat": 2798,
      "National": 2799,
      "NDAM": 2800,
      "Or": 2801,
      "OBT": 2802,
      "Pen": 2803,
      "Pol": 2804,
      "Pill": 2805,
      "Phi": 2806,
      "Part": 2807,
      "PLAN": 2808,
      "Q7": 2809,
      "QU": 2810,
      "R5": 2811,
      "Re": 2812,
      "Rice": 2813,
      "RAP": 2814,
      "Rosen": 2815,
      "SU": 2816,
      "Sn": 2817,
      "Sch": 2818,
      "Sal": 2819,
      "Sta": 2820,
      "Sti": 2821,
      "Ste": 2822,
      "Shi": 2823,
      "SAL": 2824,
      "SED": 2825,
      "SPE": 2826,
      "Section": 2827,
      "SAF": 2828,
      "SCEN": 2829,
      "TS": 2830,
      "TW": 2831,
      "Tei": 2832,
      "TING": 2833,
      "Tchi": 2834,
      "TION": 2835,
      "TRAP": 2836,
      "Up": 2837,
      "UENCE": 2838,
      "ULT": 2839,
      "VI": 2840,
      "Vari": 2841,
      "Vene": 2842,
      "Victory": 2843,
      "VELOP": 2844,
      "Wal": 2845,
      "WHI": 2846,
      "_A": 2847,
      "_v": 2848,
      "_in": 2849,
      "_en": 2850,
      "_to": 2851,
      "_Wh": 2852,
      "_White": 2853,
      "_Black": 2854,
      "_all": 2855,
      "_by": 2856,
      "_has": 2857,
      "_act": 2858,
      "_un": 2859,
      "_It": 2860,
      "_This": 2861,
      "_pieces": 2862,
      "_two": 2863,
      "_develop": 2864,
      "_advance": 2865,
      "_when": 2866,
      "_bring": 2867,
      "_EN": 2868,
      "_once": 2869,
      "_pas": 2870,
      "_even": 2871,
      "_defensive": 2872,
      "_block": 2873,
      "_advancing": 2874,
      "_control": 2875,
      "_Before": 2876,
      "_typ": 2877,
      "_opposition_": 2878,
      "_odd": 2879,
      "_offensive": 2880,
      "_distant": 2881,
      "_Di": 2882,
      "_Ke": 2883,
      "_Mc": 2884,
      "ax": 2885,
      "ath": 2886,
      "ala": 2887,
      "ace": 2888,
      "ade": 2889,
      "ama": 2890,
      "air": 2891,
      "ago": 2892,
      "agin": 2893,
      "afre": 2894,
      "avert": 2895,
      "bition": 2896,
      "bay": 2897,
      "bun": 2898,
      "biti": 2899,
      "bound": 2900,
      "big": 2901,
      "cy": 2902,
      "cis": 2903,
      "cle": 2904,
      "cup": 2905,
      "card": 2906,
      "clim": 2907,
      "ds": 2908,
      "dy": 2909,
      "don": 2910,
      "dare": 2911,
      "duce": 2912,
      "dama": 2913,
      "em": 2914,
      "eight": 2915,
      "eming": 2916,
      "emer": 2917,
      "ears": 2918,
      "early": 2919,
      "eze": 2920,
      "elabor": 2921,
      "fl": 2922,
      "five": 2923,
      "fir": 2924,
      "gg": 2925,
      "gl": 2926,
      "gy": 2927,
      "git": 2928,
      "gue": 2929,
      "gres": 2930,
      "glan": 2931,
      "gene": 2932,
      "hat": 2933,
      "hur": 2934,
      "hol": 2935,
      "iv": 2936,
      "iate": 2937,
      "ique": 2938,
      "irely": 2939,
      "ize": 2940,
      "jour": 2941,
      "ko": 2942,
      "ks": 2943,
      "ky": 2944,
      "ked": 2945,
      "lp": 2946,
      "lt": 2947,
      "lve": 2948,
      "lic": 2949,
      "lud": 2950,
      "lur": 2951,
      "lting": 2952,
      "lively": 2953,
      "lished": 2954,
      "mon": 2955,
      "mor": 2956,
      "mall": 2957,
      "mend": 2958,
      "mour": 2959,
      "mir": 2960,
      "mask": 2961,
      "mbit": 2962,
      "multi": 2963,
      "mild": 2964,
      "mbor": 2965,
      "neither": 2966,
      "nished": 2967,
      "oth": 2968,
      "oit": 2969,
      "ote": 2970,
      "oever": 2971,
      "pat": 2972,
      "pse": 2973,
      "pul": 2974,
      "pable": 2975,
      "peri": 2976,
      "pers": 2977,
      "ptible": 2978,
      "pair": 2979,
      "queen": 2980,
      "rand": 2981,
      "row": 2982,
      "ros": 2983,
      "ral": 2984,
      "rpr": 2985,
      "rance": 2986,
      "rating": 2987,
      "rible": 2988,
      "riate": 2989,
      "s_": 2990,
      "sat": 2991,
      "she": 2992,
      "smo": 2993,
      "saw": 2994,
      "sce": 2995,
      "sad": 2996,
      "sca": 2997,
      "sco": 2998,
      "sess": 2999,
      "spo": 3000,
      "spect": 3001,
      "sche": 3002,
      "spur": 3003,
      "small": 3004,
      "tt": 3005,
      "tan": 3006,
      "tre": 3007,
      "tight": 3008,
      "twe": 3009,
      "treat": 3010,
      "tending": 3011,
      "twent": 3012,
      "ude": 3013,
      "ush": 3014,
      "uous": 3015,
      "uced": 3016,
      "uished": 3017,
      "ugg": 3018,
      "vin": 3019,
      "vind": 3020,
      "vary": 3021,
      "vain": 3022,
      "war": 3023,
      "wers": 3024,
      "wander": 3025,
      "xious": 3026,
      "yle": 3027,
      "youn": 3028,
      "yance": 3029,
      "years": 3030,
      "ymbor": 3031,
      "zue": 3032,
      "thal": 3033,
      "thom": 3034,
      "init": 3035,
      "inite": 3036,
      "inal": 3037,
      "iness": 3038,
      "indirect": 3039,
      "inev": 3040,
      "inforces": 3041,
      "incur": 3042,
      "inexperi": 3043,
      "insight": 3044,
      "instruct": 3045,
      "indeed": 3046,
      "themat": 3047,
      "theless": 3048,
      "anno": 3049,
      "ante": 3050,
      "anew": 3051,
      "anxious": 3052,
      "onous": 3053,
      "aten": 3054,
      "ator": 3055,
      "attit": 3056,
      "issu": 3057,
      "isfac": 3058,
      "ret": 3059,
      "reve": 3060,
      "rede": 3061,
      "rear": 3062,
      "retain": 3063,
      "repe": 3064,
      "recomm": 3065,
      "retaken": 3066,
      "request": 3067,
      "refer": 3068,
      "relieve": 3069,
      "recapt": 3070,
      "remark": 3071,
      "reference": 3072,
      "retook": 3073,
      "regar": 3074,
      "repul": 3075,
      "reinforces": 3076,
      "it_": 3077,
      "itable": 3078,
      "itting": 3079,
      "itatively": 3080,
      "enun": 3081,
      "enci": 3082,
      "ensure": 3083,
      "tour": 3084,
      "touch": 3085,
      "tomed": 3086,
      "tower": 3087,
      "total": 3088,
      "ing_": 3089,
      "ved": 3090,
      "veil": 3091,
      "step": 3092,
      "stling": 3093,
      "stages": 3094,
      "style": 3095,
      "lade": 3096,
      "laught": 3097,
      "lapse": 3098,
      "oud": 3099,
      "oured": 3100,
      "lly": 3101,
      "llection": 3102,
      "bered": 3103,
      "beaten": 3104,
      "ched": 3105,
      "chter": 3106,
      "chie": 3107,
      "chman": 3108,
      "chain": 3109,
      "chosen": 3110,
      "eration": 3111,
      "orter": 3112,
      "orance": 3113,
      "asure": 3114,
      "aside": 3115,
      "assure": 3116,
      "asible": 3117,
      "asser": 3118,
      "asured": 3119,
      "ckily": 3120,
      "edily": 3121,
      "heav": 3122,
      "What": 3123,
      "metimes": 3124,
      "measured": 3125,
      "lacks": 3126,
      "mode": 3127,
      "modif": 3128,
      "mogene": 3129,
      "oses": 3130,
      "osko": 3131,
      "lemate": 3132,
      "lected": 3133,
      "legit": 3134,
      "lechter": 3135,
      "ldom": 3136,
      "wide": 3137,
      "operation": 3138,
      "aware": 3139,
      "cept": 3140,
      "ceived": 3141,
      "deal": 3142,
      "deta": 3143,
      "defe": 3144,
      "deep": 3145,
      "depart": 3146,
      "delay": 3147,
      "death": 3148,
      "deceived": 3149,
      "enty": 3150,
      "entrench": 3151,
      "entirely": 3152,
      "possess": 3153,
      "aled": 3154,
      "alty": 3155,
      "ality": 3156,
      "places": 3157,
      "sear": 3158,
      "sequ": 3159,
      "seven": 3160,
      "sets": 3161,
      "seque": 3162,
      "selected": 3163,
      "seldom": 3164,
      "gathere": 3165,
      "gambit": 3166,
      "table": 3167,
      "tabl": 3168,
      "aday": 3169,
      "addi": 3170,
      "adjour": 3171,
      "admir": 3172,
      "movements": 3173,
      "arance": 3174,
      "armour": 3175,
      "arante": 3176,
      "playable": 3177,
      "nobo": 3178,
      "forth": 3179,
      "sical": 3180,
      "sieze": 3181,
      "ghth": 3182,
      "ation_": 3183,
      "haust": 3184,
      "habit": 3185,
      "position_": 3186,
      "Their": 3187,
      "Theoretic": 3188,
      "King_": 3189,
      "withdraw": 3190,
      "withdrawing": 3191,
      "withdraws": 3192,
      "exact": 3193,
      "expl": 3194,
      "extr": 3195,
      "explan": 3196,
      "exper": 3197,
      "expose": 3198,
      "exhi": 3199,
      "exposes": 3200,
      "excus": 3201,
      "exig": 3202,
      "exists": 3203,
      "existed": 3204,
      "exhaust": 3205,
      "notices": 3206,
      "sole": 3207,
      "soone": 3208,
      "utter": 3209,
      "foot": 3210,
      "folly": 3211,
      "short": 3212,
      "shorter": 3213,
      "weap": 3214,
      "weather": 3215,
      "thermore": 3216,
      "suit": 3217,
      "suance": 3218,
      "surely": 3219,
      "surm": 3220,
      "sulting": 3221,
      "surpr": 3222,
      "susce": 3223,
      "ishes_": 3224,
      "proffered": 3225,
      "promin": 3226,
      "prize": 3227,
      "proud": 3228,
      "winter": 3229,
      "winds": 3230,
      "conne": 3231,
      "confront": 3232,
      "convers": 3233,
      "convin": 3234,
      "consulting": 3235,
      "terms": 3236,
      "terrible": 3237,
      "ift": 3238,
      "ifies": 3239,
      "timid": 3240,
      "tiest": 3241,
      "timing": 3242,
      "abstr": 3243,
      "ablished": 3244,
      "vance": 3245,
      "Bishop_": 3246,
      "icient": 3247,
      "imation": 3248,
      "imate": 3249,
      "impre": 3250,
      "impro": 3251,
      "immaterial": 3252,
      "immin": 3253,
      "imagin": 3254,
      "caught": 3255,
      "capable": 3256,
      "castling": 3257,
      "gaining": 3258,
      "active": 3259,
      "actically": 3260,
      "comment": 3261,
      "comply": 3262,
      "compat": 3263,
      "preced": 3264,
      "precis": 3265,
      "iest": 3266,
      "ietly": 3267,
      "side_": 3268,
      "quate": 3269,
      "quality": 3270,
      "quietly": 3271,
      "plight": 3272,
      "plun": 3273,
      "plenty": 3274,
      "maste": 3275,
      "machin": 3276,
      "mathemat": 3277,
      "attained": 3278,
      "Pawns_": 3279,
      "sage": 3280,
      "sake": 3281,
      "out_": 3282,
      "outstand": 3283,
      "outset": 3284,
      "outrance": 3285,
      "nowaday": 3286,
      "ders": 3287,
      "dering": 3288,
      "llowing": 3289,
      "ament": 3290,
      "ambiti": 3291,
      "unco": 3292,
      "unnecess": 3293,
      "undoub": 3294,
      "unexpected": 3295,
      "unfortunately": 3296,
      "unassa": 3297,
      "unevent": 3298,
      "unprotected": 3299,
      "unaware": 3300,
      "fears": 3301,
      "feared": 3302,
      "felt": 3303,
      "feasible": 3304,
      "Its": 3305,
      "Initi": 3306,
      "Indeed": 3307,
      "obstruct": 3308,
      "191": 3309,
      "192": 3310,
      "193": 3311,
      "194": 3312,
      "195": 3313,
      "196": 3314,
      "198": 3315,
      "199": 3316,
      "19th": 3317,
      "1912": 3318,
      "1916": 3319,
      "1920": 3320,
      "ulged": 3321,
      "timely": 3322,
      "upper": 3323,
      "upset": 3324,
      "upsets": 3325,
      "pley": 3326,
      "pleasure": 3327,
      "ird": 3328,
      "irit": 3329,
      "irresis": 3330,
      "irregular": 3331,
      "defined": 3332,
      "definite": 3333,
      "usal": 3334,
      "ustomed": 3335,
      "foremost": 3336,
      "foresee": 3337,
      "foregoing": 3338,
      "foresight": 3339,
      "drance": 3340,
      "drift": 3341,
      "track": 3342,
      "troff": 3343,
      "urally": 3344,
      "100": 3345,
      "101": 3346,
      "102": 3347,
      "103": 3348,
      "104": 3349,
      "105": 3350,
      "106": 3351,
      "107": 3352,
      "108": 3353,
      "109": 3354,
      "10th": 3355,
      "anyway": 3356,
      "prevail": 3357,
      "130": 3358,
      "131": 3359,
      "132": 3360,
      "133": 3361,
      "134": 3362,
      "135": 3363,
      "136": 3364,
      "137": 3365,
      "138": 3366,
      "139": 3367,
      "mate_": 3368,
      "teen": 3369,
      "team": 3370,
      "arduous": 3371,
      "collection": 3372,
      "140": 3373,
      "141": 3374,
      "142": 3375,
      "143": 3376,
      "144": 3377,
      "145": 3378,
      "146": 3379,
      "147": 3380,
      "148": 3381,
      "149": 3382,
      "finess": 3383,
      "finest": 3384,
      "180": 3385,
      "181": 3386,
      "182": 3387,
      "183": 3388,
      "184": 3389,
      "185": 3390,
      "186": 3391,
      "187": 3392,
      "188": 3393,
      "189": 3394,
      "18th": 3395,
      "menting": 3396,
      "doing": 3397,
      "120": 3398,
      "121": 3399,
      "123": 3400,
      "124": 3401,
      "125": 3402,
      "126": 3403,
      "127": 3404,
      "128": 3405,
      "129": 3406,
      "12th": 3407,
      "160": 3408,
      "161": 3409,
      "162": 3410,
      "163": 3411,
      "164": 3412,
      "165": 3413,
      "166": 3414,
      "167": 3415,
      "168": 3416,
      "169": 3417,
      "apex": 3418,
      "approp": 3419,
      "apparen": 3420,
      "bott": 3421,
      "ounders": 3422,
      "tainly": 3423,
      "pered": 3424,
      "pecul": 3425,
      "170": 3426,
      "171": 3427,
      "172": 3428,
      "173": 3429,
      "174": 3430,
      "175": 3431,
      "176": 3432,
      "177": 3433,
      "178": 3434,
      "179": 3435,
      "17th": 3436,
      "acqui": 3437,
      "acros": 3438,
      "accept": 3439,
      "parry": 3440,
      "arily": 3441,
      "150": 3442,
      "151": 3443,
      "152": 3444,
      "153": 3445,
      "154": 3446,
      "155": 3447,
      "156": 3448,
      "159": 3449,
      "Third": 3450,
      "mating": 3451,
      "square_": 3452,
      "230": 3453,
      "231": 3454,
      "232": 3455,
      "233": 3456,
      "234": 3457,
      "235": 3458,
      "236": 3459,
      "237": 3460,
      "238": 3461,
      "239": 3462,
      "myself": 3463,
      "various": 3464,
      "240": 3465,
      "241": 3466,
      "242": 3467,
      "243": 3468,
      "244": 3469,
      "245": 3470,
      "246": 3471,
      "200": 3472,
      "201": 3473,
      "202": 3474,
      "203": 3475,
      "204": 3476,
      "205": 3477,
      "206": 3478,
      "207": 3479,
      "208": 3480,
      "209": 3481,
      "reduce": 3482,
      "strugg": 3483,
      "ciated": 3484,
      "digest": 3485,
      "divide": 3486,
      "lated": 3487,
      "111": 3488,
      "221": 3489,
      "222": 3490,
      "225": 3491,
      "226": 3492,
      "227": 3493,
      "228": 3494,
      "229": 3495,
      "ils": 3496,
      "ilfully": 3497,
      "central": 3498,
      "readers": 3499,
      "readiness": 3500,
      "energy": 3501,
      "eighth": 3502,
      "exchanging": 3503,
      "proach": 3504,
      "provide": 3505,
      "produce": 3506,
      "progres": 3507,
      "backwards": 3508,
      "generations": 3509,
      "centres": 3510,
      "INENT": 3511,
      "INDIRECT": 3512,
      "INFL": 3513,
      "INQU": 3514,
      "INTS": 3515,
      "afterwards": 3516,
      "ENED": 3517,
      "indulged": 3518,
      "easiest": 3519,
      "vices": 3520,
      "vigor": 3521,
      "respon": 3522,
      "reserve": 3523,
      "lasting": 3524,
      "proposes": 3525,
      "28th": 3526,
      "net": 3527,
      "near": 3528,
      "nered": 3529,
      "mostly": 3530,
      "board_": 3531,
      "answers": 3532,
      "fice": 3533,
      "facts": 3534,
      "supply": 3535,
      "supposing": 3536,
      "accustomed": 3537,
      "intends": 3538,
      "intention": 3539,
      "seem": 3540,
      "seeing": 3541,
      "seeming": 3542,
      "forceful": 3543,
      "developments": 3544,
      "possible_": 3545,
      "showing": 3546,
      "disposition": 3547,
      "disadvantage": 3548,
      "disclose": 3549,
      "disting": 3550,
      "disappears": 3551,
      "gnable": 3552,
      "thrown": 3553,
      "wherever": 3554,
      "etc": 3555,
      "polic": 3556,
      "olve": 3557,
      "passage": 3558,
      "worst": 3559,
      "icalities": 3560,
      "combine": 3561,
      "combines": 3562,
      "ounted": 3563,
      "reasonable": 3564,
      "quicker": 3565,
      "desisted": 3566,
      "linked": 3567,
      "storm": 3568,
      "formations": 3569,
      "undertake": 3570,
      "objects": 3571,
      "manoeuvred": 3572,
      "ignorance": 3573,
      "wondering": 3574,
      "front_": 3575,
      "direction": 3576,
      "THRE": 3577,
      "badly": 3578,
      "valid": 3579,
      "Nothing": 3580,
      "evolve": 3581,
      "homogene": 3582,
      "hands": 3583,
      "handle": 3584,
      "pering": 3585,
      "perament": 3586,
      "perusal": 3587,
      "initiating": 3588,
      "oppose": 3589,
      "press": 3590,
      "GAMES": 3591,
      "oduced": 3592,
      "overlooks": 3593,
      "overthrow": 3594,
      "opens": 3595,
      "opened": 3596,
      "forces_": 3597,
      "contented": 3598,
      "Bishops_": 3599,
      "compliment": 3600,
      "point_": 3601,
      "stops": 3602,
      "posts": 3603,
      "whoever": 3604,
      "quickly_": 3605,
      "carries": 3606,
      "effort": 3607,
      "miss": 3608,
      "missing": 3609,
      "consideration": 3610,
      "considerations": 3611,
      "fection": 3612,
      "finds": 3613,
      "Only": 3614,
      "ualities": 3615,
      "ualising": 3616,
      "THEOR": 3617,
      "crush": 3618,
      "getting": 3619,
      "completes": 3620,
      "strongly": 3621,
      "alysing": 3622,
      "established": 3623,
      "estimation": 3624,
      "knows": 3625,
      "named": 3626,
      "penalty": 3627,
      "berating": 3628,
      "learning": 3629,
      "probabil": 3630,
      "ATENED": 3631,
      "calling": 3632,
      "lict": 3633,
      "liberating": 3634,
      "isolating": 3635,
      "commonly": 3636,
      "committing": 3637,
      "collapse": 3638,
      "fathom": 3639,
      "wrote": 3640,
      "cheon": 3641,
      "superiors": 3642,
      "doubly": 3643,
      "colours": 3644,
      "OPPOSITION": 3645,
      "corners": 3646,
      "correspon": 3647,
      "cornered": 3648,
      "resume": 3649,
      "posely": 3650,
      "suffered": 3651,
      "suffice": 3652,
      "tempi": 3653,
      "temperament": 3654,
      "excepting": 3655,
      "likely": 3656,
      "Often": 3657,
      "PASS": 3658,
      "closely": 3659,
      "singly": 3660,
      "headed": 3661,
      "solved": 3662,
      "studying": 3663,
      "works": 3664,
      "worked": 3665,
      "diagonals": 3666,
      "questionably": 3667,
      "situations": 3668,
      "alternatives": 3669,
      "sacrifices": 3670,
      "CHESS": 3671,
      "DEVELOP": 3672,
      "ERENT": 3673,
      "furnished": 3674,
      "skilfully": 3675,
      "prepares": 3676,
      "blocking": 3677,
      "successfully": 3678,
      "ranks": 3679,
      "wrongly": 3680,
      "sufficiently": 3681,
      "strategic": 3682,
      "OFF": 3683,
      "aimed": 3684,
      "nevertheless": 3685,
      "occup": 3686,
      "turned": 3687,
      "interposing": 3688,
      "analytic": 3689,
      "believed": 3690,
      "assured": 3691,
      "assures": 3692,
      "assumes": 3693,
      "assuring": 3694,
      "deciding": 3695,
      "differently": 3696,
      "violation": 3697,
      "presents": 3698,
      "presently": 3699,
      "mastership": 3700,
      "helps": 3701,
      "Without": 3702,
      "thinks": 3703,
      "Any": 3704,
      "Being": 3705,
      "REGU": 3706,
      "elimin": 3707,
      "everywhere": 3708,
      "favoured": 3709,
      "hia": 3710,
      "mines": 3711,
      "bears": 3712,
      "hereabout": 3713,
      "expects": 3714,
      "expecting": 3715,
      "subtle": 3716,
      "substance": 3717,
      "fixes": 3718,
      "diagrams": 3719,
      "safety_": 3720,
      "violently": 3721,
      "counteract": 3722,
      "opportunities": 3723,
      "ALS": 3724,
      "pursuance": 3725,
      "purposely": 3726,
      "specul": 3727,
      "specially": 3728,
      "speedily": 3729,
      "visualising": 3730,
      "regains": 3731,
      "regained": 3732,
      "replying": 3733,
      "exert": 3734,
      "compensate": 3735,
      "compensates": 3736,
      "weakens": 3737,
      "proceeds": 3738,
      "protection": 3739,
      "commands": 3740,
      "ACTION": 3741,
      "Already": 3742,
      "Although": 3743,
      "Altogether": 3744,
      "ONE": 3745,
      "Petroff": 3746,
      "State": 3747,
      "bitter": 3748,
      "clears": 3749,
      "downright": 3750,
      "kinds": 3751,
      "kindly": 3752,
      "pin_": 3753,
      "sbury": 3754,
      "vot": 3755,
      "vogue": 3756,
      "increase": 3757,
      "require": 3758,
      "methodical": 3759,
      "methodically": 3760,
      "secures": 3761,
      "shifted": 3762,
      "preferably": 3763,
      "ENTALS": 3764,
      "worthless": 3765,
      "ordinate": 3766,
      "ordinating": 3767,
      "fails": 3768,
      "failed": 3769,
      "certainly": 3770,
      "fortunes": 3771,
      "fortunate": 3772,
      "See": 3773,
      "fourth": 3774,
      "fourteen": 3775,
      "waits": 3776,
      "beauty": 3777,
      "beauties": 3778,
      "originally": 3779,
      "meeting": 3780,
      "tactical": 3781,
      "constant": 3782,
      "capturing": 3783,
      "marked": 3784,
      "ITICI": 3785,
      "else_": 3786,
      "elsewhere": 3787,
      "attempted": 3788,
      "resigns": 3789,
      "ATTACKS": 3790,
      "!!!": 3791,
      "!!;": 3792,
      "CIMEN": 3793,
      "CLASS": 3794,
      "DDEN": 3795,
      "POSS": 3796,
      "POINTS": 3797,
      "Under": 3798,
      "Uncover": 3799,
      "Unquestionably": 3800,
      "WILL": 3801,
      "_fixing_": 3802,
      "cutting": 3803,
      "creating": 3804,
      "creates": 3805,
      "henceforth": 3806,
      "iarity": 3807,
      "pions": 3808,
      "inferior": 3809,
      "related": 3810,
      "stake": 3811,
      "devotes": 3812,
      "allowed": 3813,
      "utilising": 3814,
      "concerning": 3815,
      "amongst": 3816,
      "unquestionable": 3817,
      "finishing": 3818,
      "paralyses": 3819,
      "Hereafter": 3820,
      "types": 3821,
      "dislodged": 3822,
      "disrupt": 3823,
      "disrupting": 3824,
      "disruption": 3825,
      "understanding": 3826,
      "values": 3827,
      "continuations": 3828,
      "controlled": 3829,
      "demonstrated": 3830,
      "ROOKS": 3831,
      "solution": 3832,
      "gradual": 3833,
      "IVES": 3834,
      "constitute": 3835,
      "Commenting": 3836,
      "III": 3837,
      "LAR": 3838,
      "dominate": 3839,
      "dominates": 3840,
      "fifth": 3841,
      "faster": 3842,
      "guiding": 3843,
      "guarante": 3844,
      "iancy": 3845,
      "merit": 3846,
      "thirty": 3847,
      "invention": 3848,
      "replied": 3849,
      "statements": 3850,
      "choose": 3851,
      "addition": 3852,
      "sixty": 3853,
      "sixtie": 3854,
      "comparing": 3855,
      "comparative": 3856,
      "saved": 3857,
      "appeared": 3858,
      "appearance": 3859,
      "acquainting": 3860,
      "nearest": 3861,
      "poorly": 3862,
      "demands": 3863,
      "overlooking": 3864,
      "complicates": 3865,
      "exercised": 3866,
      "exercises": 3867,
      "WITHOUT": 3868,
      "influenced": 3869,
      "ISHING": 3870,
      "builds": 3871,
      "FUNDAM": 3872,
      "HOLE": 3873,
      "IRREGU": 3874,
      "Mere": 3875,
      "Merely": 3876,
      "Memor": 3877,
      "Morris": 3878,
      "Practically": 3879,
      "dings": 3880,
      "hindrance": 3881,
      "illustrated": 3882,
      "illustrations": 3883,
      "mass": 3884,
      "oldest": 3885,
      "paying": 3886,
      "sphere": 3887,
      "space": 3888,
      "spirit": 3889,
      "theoretical": 3890,
      "regret": 3891,
      "returns": 3892,
      "determines": 3893,
      "extraordinary": 3894,
      "conclud": 3895,
      "conceive": 3896,
      "conceived": 3897,
      "concealed": 3898,
      "confines": 3899,
      "concentrate": 3900,
      "concentrated": 3901,
      "concentrating": 3902,
      "condemn": 3903,
      "impress": 3904,
      "preparatory": 3905,
      "united": 3906,
      "translated": 3907,
      "brilliancy": 3908,
      "simplifies": 3909,
      "govern": 3910,
      "structure": 3911,
      "discussed": 3912,
      "throwing": 3913,
      "eventualities": 3914,
      "numerical": 3915,
      "OPENING": 3916,
      "occasions": 3917,
      "RELINQU": 3918,
      "remembered": 3919,
      "training": 3920,
      "classical": 3921,
      "involving": 3922,
      "Niemzov": 3923,
      "Preparing": 3924,
      "PLAYER": 3925,
      "anticipate": 3926,
      "relinquishing": 3927,
      "relinquishes": 3928,
      "POSITIONS": 3929,
      "AINING": 3930,
      "AINST": 3931,
      "Engl": 3932,
      "Endings": 3933,
      "Firstly": 3934,
      "Getting": 3935,
      "ICAL": 3936,
      "ICULT": 3937,
      "MATES": 3938,
      "OTION": 3939,
      "PETRO": 3940,
      "Perhaps": 3941,
      "Perfection": 3942,
      "Paris": 3943,
      "Paralysing": 3944,
      "PROMINENT": 3945,
      "PROMOTION": 3946,
      "SIDE": 3947,
      "SIMPLE": 3948,
      "Sometimes": 3949,
      "TROL": 3950,
      "_Whenever": 3951,
      "calculation": 3952,
      "deduce": 3953,
      "diminished": 3954,
      "diminishes_": 3955,
      "equal": 3956,
      "equally": 3957,
      "falls": 3958,
      "gorin": 3959,
      "lighten": 3960,
      "lightly": 3961,
      "otonous": 3962,
      "ovski": 3963,
      "pivot": 3964,
      "risky": 3965,
      "scope": 3966,
      "scene": 3967,
      "services": 3968,
      "titles": 3969,
      "talented": 3970,
      "inactive": 3971,
      "inactiv": 3972,
      "intricate": 3973,
      "introduced": 3974,
      "onslaught": 3975,
      "relief": 3976,
      "relieving": 3977,
      "recovering": 3978,
      "restricting": 3979,
      "restricted": 3980,
      "laborious": 3981,
      "championship": 3982,
      "champions": 3983,
      "garding": 3984,
      "hampered": 3985,
      "hampering": 3986,
      "profit": 3987,
      "proficient": 3988,
      "promising": 3989,
      "promises": 3990,
      "confess": 3991,
      "conflict": 3992,
      "pretty": 3993,
      "prettiest": 3994,
      "amateurs": 3995,
      "unlikely": 3996,
      "feels": 3997,
      "irresolute": 3998,
      "irreproach": 3999,
      "truth": 4000,
      "truly": 4001,
      "technique": 4002,
      "technicalities": 4003,
      "appreciate": 4004,
      "appreciated": 4005,
      "principal": 4006,
      "principally": 4007,
      "management": 4008,
      "desired": 4009,
      "desires": 4010,
      "carelessness": 4011,
      "cramped": 4012,
      "correctly": 4013,
      "tempting": 4014,
      "decrease": 4015,
      "decreases": 4016,
      "compels": 4017,
      "Secondly": 4018,
      "eleventh": 4019,
      "claims": 4020,
      "claimed": 4021,
      "DIFFERENT": 4022,
      "DIFFICULT": 4023,
      "facilitates": 4024,
      "facilitating": 4025,
      "masse_": 4026,
      "discussions": 4027,
      "afford": 4028,
      "afforded": 4029,
      "authoritatively": 4030,
      "rapidly": 4031,
      "relaxes": 4032,
      "awakens": 4033,
      "ABOUT": 4034,
      "AGAINST": 4035,
      "AID": 4036,
      "Advance": 4037,
      "Ayala": 4038,
      "Borovski": 4039,
      "Better": 4040,
      "CRITICI": 4041,
      "Certainly": 4042,
      "Calculation": 4043,
      "Cutcheon": 4044,
      "CONTROL": 4045,
      "CUTTING": 4046,
      "CARDIN": 4047,
      "DANGER": 4048,
      "Either": 4049,
      "Fewer": 4050,
      "Following": 4051,
      "Furthermore": 4052,
      "FIND": 4053,
      "Failing": 4054,
      "Going": 4055,
      "Kreymbor": 4056,
      "Luckily": 4057,
      "London": 4058,
      "Lodz": 4059,
      "Manhat": 4060,
      "MENTS": 4061,
      "MASSE_": 4062,
      "MOTIVES": 4063,
      "Naturally": 4064,
      "OBTAINING": 4065,
      "Penn": 4066,
      "Poland": 4067,
      "Pillsbury": 4068,
      "Philade": 4069,
      "PLANNING": 4070,
      "Regarding": 4071,
      "Rosenthal": 4072,
      "SUDDEN": 4073,
      "Snosko": 4074,
      "Schlechter": 4075,
      "Salwe": 4076,
      "Stalemate": 4077,
      "Still": 4078,
      "Steinit": 4079,
      "Shipley": 4080,
      "SALIENT": 4081,
      "SPECIMEN": 4082,
      "SAFE": 4083,
      "SCENE": 4084,
      "TWO": 4085,
      "Teichman": 4086,
      "Tchigorin": 4087,
      "TRAPS": 4088,
      "Variation_": 4089,
      "Venezue": 4090,
      "Walter": 4091,
      "WHICH": 4092,
      "_Whoever": 4093,
      "_Black_": 4094,
      "_unpin_": 4095,
      "_This_": 4096,
      "_pass_": 4097,
      "_even_": 4098,
      "_defensive_": 4099,
      "_types_": 4100,
      "_odd_": 4101,
      "_offensive_": 4102,
      "_distant_": 4103,
      "_Direct": 4104,
      "_Keep": 4105,
      "_McCutcheon": 4106,
      "adequate": 4107,
      "afresh": 4108,
      "bunched": 4109,
      "clever": 4110,
      "cardinal": 4111,
      "climax": 4112,
      "damage": 4113,
      "employ": 4114,
      "emerge": 4115,
      "elaborated": 4116,
      "flounders": 4117,
      "firm": 4118,
      "glance": 4119,
      "hurry": 4120,
      "holes": 4121,
      "lphia": 4122,
      "lurks": 4123,
      "monotonous": 4124,
      "mendous": 4125,
      "masked": 4126,
      "multiple": 4127,
      "othly": 4128,
      "period": 4129,
      "persists": 4130,
      "pairs": 4131,
      "queens": 4132,
      "random": 4133,
      "satisfac": 4134,
      "smoothly": 4135,
      "scale": 4136,
      "score": 4137,
      "spots": 4138,
      "spectator": 4139,
      "schemes": 4140,
      "smallest": 4141,
      "tremendous": 4142,
      "twelve": 4143,
      "treated": 4144,
      "twenty": 4145,
      "vindicate": 4146,
      "warned": 4147,
      "wandering": 4148,
      "young": 4149,
      "inevitable": 4150,
      "incurring": 4151,
      "inexperienced": 4152,
      "instructive": 4153,
      "annoyance": 4154,
      "attitude": 4155,
      "issue": 4156,
      "reveal": 4157,
      "redeeming": 4158,
      "rearmost": 4159,
      "retained": 4160,
      "repeating": 4161,
      "recommend": 4162,
      "referred": 4163,
      "relieved": 4164,
      "recaptured": 4165,
      "remarkable": 4166,
      "regard": 4167,
      "repulsed": 4168,
      "enunciated": 4169,
      "encies": 4170,
      "tournament": 4171,
      "veiled": 4172,
      "steps": 4173,
      "chief": 4174,
      "assertion": 4175,
      "heavy": 4176,
      "modified": 4177,
      "legitimate": 4178,
      "details": 4179,
      "defeated": 4180,
      "department": 4181,
      "entrenched": 4182,
      "possesses": 4183,
      "search": 4184,
      "sequence": 4185,
      "sequel": 4186,
      "gathered": 4187,
      "tables": 4188,
      "addicted": 4189,
      "adjourned": 4190,
      "admirable": 4191,
      "nobody": 4192,
      "Theoretically": 4193,
      "exactly": 4194,
      "exploit": 4195,
      "extricated": 4196,
      "explanations": 4197,
      "experiment": 4198,
      "exhibition": 4199,
      "excused": 4200,
      "exigencies": 4201,
      "soonest": 4202,
      "utterly": 4203,
      "footsteps": 4204,
      "weapons": 4205,
      "surmounted": 4206,
      "surprise": 4207,
      "susceptible": 4208,
      "prominent": 4209,
      "connection": 4210,
      "confronted": 4211,
      "conversant": 4212,
      "convinced": 4213,
      "abstract": 4214,
      "impregnable": 4215,
      "improving": 4216,
      "imminent": 4217,
      "imagination": 4218,
      "compatible": 4219,
      "preceding": 4220,
      "precision": 4221,
      "plunges": 4222,
      "mastered": 4223,
      "machine": 4224,
      "mathematically": 4225,
      "outstanding": 4226,
      "outrance_": 4227,
      "nowadays": 4228,
      "ambitious": 4229,
      "uncovers": 4230,
      "unnecessarily": 4231,
      "undoubted": 4232,
      "unassailable": 4233,
      "uneventful": 4234,
      "Initiating": 4235,
      "irresistible": 4236,
      "finessing": 4237,
      "appropriate": 4238,
      "apparent": 4239,
      "bottling": 4240,
      "peculiarity": 4241,
      "acquire": 4242,
      "across": 4243,
      "accepted": 4244,
      "struggle": 4245,
      "digested": 4246,
      "progresses": 4247,
      "INFLUENCE": 4248,
      "vigorous": 4249,
      "seemingly": 4250,
      "distinguished": 4251,
      "policy": 4252,
      "THREATENED": 4253,
      "homogeneous": 4254,
      "overthrows": 4255,
      "THEORY": 4256,
      "crushing": 4257,
      "probabilities": 4258,
      "corresponding": 4259,
      "PASSED": 4260,
      "DEVELOPMENTS": 4261,
      "occupies": 4262,
      "analytical": 4263,
      "eliminate": 4264,
      "speculative": 4265,
      "CLASSICAL": 4266,
      "POSSIBLE": 4267,
      "Uncovering": 4268,
      "guarantee": 4269,
      "sixtieth": 4270,
      "FUNDAMENTALS": 4271,
      "IRREGULAR": 4272,
      "Memorial": 4273,
      "Morrison": 4274,
      "concluded": 4275,
      "RELINQUISHING": 4276,
      "Niemzovitch": 4277,
      "England": 4278,
      "PETROFF": 4279,
      "inactivity": 4280,
      "irreproachable": 4281,
      "CRITICISED": 4282,
      "CARDINAL": 4283,
      "Kreymborg": 4284,
      "Manhattan": 4285,
      "Philadelphia": 4286,
      "Steinitz": 4287,
      "Teichmann": 4288,
      "Venezuelan": 4289,
      "satisfactory": 4290,
      "spectators": 4291
    },
    "merges": [
      [
        "t",
        "h"
      ],
      [
        "i",
        "n"
      ],
      [
        "th",
        "e"
      ],
      [
        "a",
        "n"
      ],
      [
        "o",
        "n"
      ],
      [
        "a",
        "t"
      ],
      [
        "i",
        "s"
      ],
      [
        "r",
        "e"
      ],
      [
        "K",
        "t"
      ],
      [
        "i",
        "t"
      ],
      [
        "e",
        "n"
      ],
      [
        "t",
        "o"
      ],
      [
        ".",
        "."
      ],
      [
        "in",
        "g"
      ],
      [
        "v",
        "e"
      ],
      [
        "s",
        "t"
      ],
      [
        "l",
        "a"
      ],
      [
        "o",
        "u"
      ],
      [
        "o",
        "f"
      ],
      [
        "l",
        "l"
      ],
      [
        "b",
        "e"
      ],
      [
        "c",
        "h"
      ],
      [
        "e",
        "r"
      ],
      [
        "an",
        "d"
      ],
      [
        "o",
        "r"
      ],
      [
        "a",
        "s"
      ],
      [
        "c",
        "k"
      ],
      [
        "i",
        "on"
      ],
      [
        "e",
        "s"
      ],
      [
        "e",
        "d"
      ],
      [
        "h",
        "e"
      ],
      [
        "W",
        "h"
      ],
      [
        "it",
        "e"
      ],
      [
        "m",
        "e"
      ],
      [
        "Wh",
        "ite"
      ],
      [
        "o",
        "w"
      ],
      [
        "la",
        "ck"
      ],
      [
        "B",
        "lack"
      ],
      [
        "m",
        "o"
      ],
      [
        "o",
        "s"
      ],
      [
        "l",
        "e"
      ],
      [
        "l",
        "d"
      ],
      [
        "w",
        "i"
      ],
      [
        "o",
        "p"
      ],
      [
        "ou",
        "ld"
      ],
      [
        "a",
        "w"
      ],
      [
        "c",
        "e"
      ],
      [
        "..",
        ".."
      ],
      [
        "l",
        "y"
      ],
      [
        "d",
        "e"
      ],
      [
        "en",
        "t"
      ],
      [
        "p",
        "os"
      ],
      [
        "a",
        "l"
      ],
      [
        "p",
        "la"
      ],
      [
        "s",
        "e"
      ],
      [
        "g",
        "a"
      ],
      [
        "t",
        "a"
      ],
      [
        "a",
        "d"
      ],
      [
        "h",
        "is"
      ],
      [
        "mo",
        "ve"
      ],
      [
        "a",
        "r"
      ],
      [
        "w",
        "h"
      ],
      [
        "aw",
        "n"
      ],
      [
        "pla",
        "y"
      ],
      [
        "P",
        "awn"
      ],
      [
        "n",
        "o"
      ],
      [
        "th",
        "at"
      ],
      [
        "f",
        "or"
      ],
      [
        "s",
        "i"
      ],
      [
        "g",
        "h"
      ],
      [
        "at",
        "ion"
      ],
      [
        "h",
        "a"
      ],
      [
        "it",
        "ion"
      ],
      [
        "pos",
        "ition"
      ],
      [
        "T",
        "he"
      ],
      [
        "c",
        "t"
      ],
      [
        "K",
        "ing"
      ],
      [
        "o",
        "m"
      ],
      [
        "w",
        "ould"
      ],
      [
        "gh",
        "t"
      ],
      [
        "wi",
        "th"
      ],
      [
        "e",
        "x"
      ],
      [
        "u",
        "st"
      ],
      [
        "a",
        "re"
      ],
      [
        "a",
        "ll"
      ],
      [
        "b",
        "y"
      ],
      [
        "no",
        "t"
      ],
      [
        "ve",
        "r"
      ],
      [
        "wh",
        "i"
      ],
      [
        "s",
        "o"
      ],
      [
        "th",
        "is"
      ],
      [
        "ha",
        "ve"
      ],
      [
        "i",
        "ght"
      ],
      [
        "u",
        "t"
      ],
      [
        "ga",
        "me"
      ],
      [
        "f",
        "o"
      ],
      [
        "o",
        "o"
      ],
      [
        "wi",
        "ll"
      ],
      [
        "whi",
        "ch"
      ],
      [
        "g",
        "e"
      ],
      [
        "s",
        "h"
      ],
      [
        "w",
        "e"
      ],
      [
        "the",
        "r"
      ],
      [
        "s",
        "u"
      ],
      [
        "is",
        "h"
      ],
      [
        "u",
        "e"
      ],
      [
        "p",
        "r"
      ],
      [
        "w",
        "in"
      ],
      [
        "c",
        "an"
      ],
      [
        "c",
        "on"
      ],
      [
        "t",
        "er"
      ],
      [
        "c",
        "es"
      ],
      [
        "i",
        "f"
      ],
      [
        "t",
        "i"
      ],
      [
        "a",
        "b"
      ],
      [
        "r",
        "ation"
      ],
      [
        "a",
        "y"
      ],
      [
        "v",
        "an"
      ],
      [
        "ll",
        "ust"
      ],
      [
        "llust",
        "ration"
      ],
      [
        "ad",
        "van"
      ],
      [
        "I",
        "llustration"
      ],
      [
        "k",
        "e"
      ],
      [
        "at",
        "e"
      ],
      [
        "on",
        "e"
      ],
      [
        "en",
        "d"
      ],
      [
        "oo",
        "k"
      ],
      [
        "B",
        "ish"
      ],
      [
        "Bish",
        "op"
      ],
      [
        "i",
        "c"
      ],
      [
        "h",
        "as"
      ],
      [
        "i",
        "m"
      ],
      [
        "c",
        "a"
      ],
      [
        "ga",
        "in"
      ],
      [
        "a",
        "ct"
      ],
      [
        "b",
        "ut"
      ],
      [
        "c",
        "om"
      ],
      [
        "....",
        "...."
      ],
      [
        "i",
        "ve"
      ],
      [
        "p",
        "re"
      ],
      [
        "i",
        "d"
      ],
      [
        "i",
        "e"
      ],
      [
        "ou",
        "r"
      ],
      [
        "si",
        "de"
      ],
      [
        "q",
        "u"
      ],
      [
        "p",
        "l"
      ],
      [
        "m",
        "a"
      ],
      [
        "at",
        "ta"
      ],
      [
        "atta",
        "ck"
      ],
      [
        "Pawn",
        "s"
      ],
      [
        "s",
        "a"
      ],
      [
        "ue",
        "en"
      ],
      [
        "Q",
        "ueen"
      ],
      [
        "R",
        "ook"
      ],
      [
        "re",
        "at"
      ],
      [
        "K",
        "n"
      ],
      [
        "ou",
        "t"
      ],
      [
        "Kn",
        "ight"
      ],
      [
        "n",
        "ow"
      ],
      [
        "d",
        "er"
      ],
      [
        "ll",
        "ow"
      ],
      [
        "fo",
        "llow"
      ],
      [
        "the",
        "re"
      ],
      [
        "sh",
        "ould"
      ],
      [
        "ver",
        "y"
      ],
      [
        "p",
        "ie"
      ],
      [
        "a",
        "m"
      ],
      [
        "f",
        "r"
      ],
      [
        "u",
        "n"
      ],
      [
        "f",
        "e"
      ],
      [
        "u",
        "se"
      ],
      [
        "all",
        "y"
      ],
      [
        "I",
        "f"
      ],
      [
        "I",
        "t"
      ],
      [
        "a",
        "gain"
      ],
      [
        "w",
        "as"
      ],
      [
        "A",
        "M"
      ],
      [
        "be",
        "ca"
      ],
      [
        "end",
        "ing"
      ],
      [
        "I",
        "n"
      ],
      [
        "o",
        "b"
      ],
      [
        "ch",
        "an"
      ],
      [
        "beca",
        "use"
      ],
      [
        "1",
        "9"
      ],
      [
        "u",
        "l"
      ],
      [
        "ti",
        "me"
      ],
      [
        "w",
        "ay"
      ],
      [
        "T",
        "his"
      ],
      [
        "u",
        "p"
      ],
      [
        "..",
        "."
      ],
      [
        "o",
        "ther"
      ],
      [
        "p",
        "le"
      ],
      [
        "again",
        "st"
      ],
      [
        "i",
        "r"
      ],
      [
        "v",
        "en"
      ],
      [
        "a",
        "k"
      ],
      [
        "on",
        "ly"
      ],
      [
        "de",
        "f"
      ],
      [
        "pie",
        "ces"
      ],
      [
        "u",
        "s"
      ],
      [
        "th",
        "reat"
      ],
      [
        "fo",
        "re"
      ],
      [
        "L",
        "E"
      ],
      [
        "d",
        "r"
      ],
      [
        "c",
        "as"
      ],
      [
        "t",
        "r"
      ],
      [
        "u",
        "d"
      ],
      [
        "ta",
        "ge"
      ],
      [
        "advan",
        "tage"
      ],
      [
        "play",
        "ed"
      ],
      [
        "fr",
        "om"
      ],
      [
        "u",
        "r"
      ],
      [
        "w",
        "o"
      ],
      [
        "be",
        "en"
      ],
      [
        "P",
        "LE"
      ],
      [
        "mo",
        "re"
      ],
      [
        "1",
        "0"
      ],
      [
        "t",
        "wo"
      ],
      [
        "the",
        "n"
      ],
      [
        "an",
        "y"
      ],
      [
        "be",
        "st"
      ],
      [
        "-",
        "-"
      ],
      [
        "on",
        "g"
      ],
      [
        "en",
        "ing"
      ],
      [
        "ab",
        "le"
      ],
      [
        "pre",
        "v"
      ],
      [
        "1",
        "3"
      ],
      [
        "E",
        "X"
      ],
      [
        "m",
        "ate"
      ],
      [
        "st",
        "ud"
      ],
      [
        "AM",
        "PLE"
      ],
      [
        "EX",
        "AMPLE"
      ],
      [
        "l",
        "op"
      ],
      [
        "t",
        "e"
      ],
      [
        "ve",
        "lop"
      ],
      [
        "ou",
        "s"
      ],
      [
        "de",
        "velop"
      ],
      [
        "move",
        "s"
      ],
      [
        "ar",
        "d"
      ],
      [
        "c",
        "o"
      ],
      [
        "1",
        "4"
      ],
      [
        "so",
        "me"
      ],
      [
        "th",
        "ing"
      ],
      [
        "er",
        "i"
      ],
      [
        "f",
        "in"
      ],
      [
        "m",
        "ust"
      ],
      [
        "ow",
        "n"
      ],
      [
        "1",
        "8"
      ],
      [
        "b",
        "r"
      ],
      [
        "m",
        "ent"
      ],
      [
        "es",
        "s"
      ],
      [
        "si",
        "m"
      ],
      [
        "d",
        "o"
      ],
      [
        "h",
        "ow"
      ],
      [
        "ex",
        "t"
      ],
      [
        "1",
        "2"
      ],
      [
        "1",
        "6"
      ],
      [
        "e",
        "ver"
      ],
      [
        "be",
        "t"
      ],
      [
        "a",
        "p"
      ],
      [
        "b",
        "o"
      ],
      [
        "c",
        "ould"
      ],
      [
        "ou",
        "n"
      ],
      [
        "or",
        "der"
      ],
      [
        "ta",
        "in"
      ],
      [
        "p",
        "e"
      ],
      [
        "we",
        "ak"
      ],
      [
        "sa",
        "me"
      ],
      [
        "1",
        "7"
      ],
      [
        "a",
        "c"
      ],
      [
        "advan",
        "ce"
      ],
      [
        "l",
        "os"
      ],
      [
        "p",
        "ar"
      ],
      [
        "ar",
        "i"
      ],
      [
        "wh",
        "en"
      ],
      [
        "dr",
        "aw"
      ],
      [
        "stud",
        "ent"
      ],
      [
        "1",
        "5"
      ],
      [
        "T",
        "h"
      ],
      [
        "b",
        "le"
      ],
      [
        "g",
        "o"
      ],
      [
        "m",
        "at"
      ],
      [
        "s",
        "qu"
      ],
      [
        "su",
        "ch"
      ],
      [
        "squ",
        "are"
      ],
      [
        "2",
        "3"
      ],
      [
        "a",
        "st"
      ],
      [
        "m",
        "y"
      ],
      [
        "v",
        "ari"
      ],
      [
        "follow",
        "ed"
      ],
      [
        ".",
        "--"
      ],
      [
        "2",
        "4"
      ],
      [
        "d",
        "if"
      ],
      [
        "f",
        "ic"
      ],
      [
        "o",
        "st"
      ],
      [
        "can",
        "not"
      ],
      [
        "2",
        "0"
      ],
      [
        "c",
        "ed"
      ],
      [
        "g",
        "ive"
      ],
      [
        "h",
        "im"
      ],
      [
        "re",
        "d"
      ],
      [
        "st",
        "r"
      ],
      [
        "bet",
        "ter"
      ],
      [
        "H",
        "e"
      ],
      [
        "c",
        "i"
      ],
      [
        "c",
        "our"
      ],
      [
        "d",
        "i"
      ],
      [
        "l",
        "at"
      ],
      [
        "v",
        "ing"
      ],
      [
        "re",
        "e"
      ],
      [
        "ou",
        "gh"
      ],
      [
        "N",
        "ow"
      ],
      [
        "f",
        "ter"
      ],
      [
        "en",
        "ce"
      ],
      [
        "1",
        "1"
      ],
      [
        "cas",
        "e"
      ],
      [
        "cour",
        "se"
      ],
      [
        "2",
        "2"
      ],
      [
        "i",
        "l"
      ],
      [
        "t",
        "s"
      ],
      [
        "al",
        "so"
      ],
      [
        "ob",
        "tain"
      ],
      [
        ".",
        ")"
      ],
      [
        "c",
        "ent"
      ],
      [
        "g",
        "in"
      ],
      [
        "n",
        "ing"
      ],
      [
        "re",
        "ad"
      ],
      [
        "or",
        "t"
      ],
      [
        "prev",
        "ent"
      ],
      [
        "a",
        "ck"
      ],
      [
        "g",
        "oo"
      ],
      [
        "t",
        "ext"
      ],
      [
        "en",
        "er"
      ],
      [
        "pos",
        "si"
      ],
      [
        "ta",
        "ke"
      ],
      [
        "vari",
        "ation"
      ],
      [
        "goo",
        "d"
      ],
      [
        "e",
        "i"
      ],
      [
        "g",
        "i"
      ],
      [
        "ir",
        "st"
      ],
      [
        "h",
        "ad"
      ],
      [
        "m",
        "ight"
      ],
      [
        "ex",
        "chan"
      ],
      [
        "pr",
        "o"
      ],
      [
        "b",
        "ack"
      ],
      [
        "f",
        "irst"
      ],
      [
        "g",
        "ener"
      ],
      [
        "p",
        "ort"
      ],
      [
        "w",
        "he"
      ],
      [
        "op",
        "ening"
      ],
      [
        "br",
        "ing"
      ],
      [
        "cent",
        "re"
      ],
      [
        "ei",
        "ther"
      ],
      [
        "I",
        "N"
      ],
      [
        "a",
        "fter"
      ],
      [
        "play",
        "ing"
      ],
      [
        "ma",
        "ke"
      ],
      [
        "threat",
        "en"
      ],
      [
        "dif",
        "fic"
      ],
      [
        "diffic",
        "ul"
      ],
      [
        "2",
        "1"
      ],
      [
        "t",
        "y"
      ],
      [
        "t",
        "en"
      ],
      [
        "u",
        "ch"
      ],
      [
        "pl",
        "an"
      ],
      [
        "2",
        "5"
      ],
      [
        "E",
        "N"
      ],
      [
        "e",
        "p"
      ],
      [
        "in",
        "d"
      ],
      [
        "in",
        "ce"
      ],
      [
        "be",
        "gin"
      ],
      [
        "e",
        "as"
      ],
      [
        "v",
        "i"
      ],
      [
        "at",
        "ive"
      ],
      [
        "re",
        "s"
      ],
      [
        "it",
        "y"
      ],
      [
        "la",
        "st"
      ],
      [
        "ending",
        "s"
      ],
      [
        "in",
        "to"
      ],
      [
        "ex",
        "am"
      ],
      [
        "pr",
        "op"
      ],
      [
        "win",
        "s"
      ],
      [
        "win",
        "ning"
      ],
      [
        "read",
        "y"
      ],
      [
        "gi",
        "ven"
      ],
      [
        "2",
        "8"
      ],
      [
        "n",
        "e"
      ],
      [
        "mo",
        "st"
      ],
      [
        "ke",
        "ep"
      ],
      [
        "bo",
        "ard"
      ],
      [
        "m",
        "ay"
      ],
      [
        "p",
        "t"
      ],
      [
        "s",
        "ha"
      ],
      [
        "in",
        "ci"
      ],
      [
        "an",
        "s"
      ],
      [
        "on",
        "ce"
      ],
      [
        "re",
        "as"
      ],
      [
        "it",
        "i"
      ],
      [
        "The",
        "re"
      ],
      [
        "pr",
        "inci"
      ],
      [
        "prop",
        "er"
      ],
      [
        "sha",
        "ll"
      ],
      [
        "f",
        "i"
      ],
      [
        "f",
        "act"
      ],
      [
        "m",
        "an"
      ],
      [
        "s",
        "ince"
      ],
      [
        "th",
        "us"
      ],
      [
        "we",
        "ll"
      ],
      [
        "su",
        "p"
      ],
      [
        "qu",
        "i"
      ],
      [
        "co",
        "me"
      ],
      [
        "ac",
        "c"
      ],
      [
        "2",
        "6"
      ],
      [
        "2",
        "7"
      ],
      [
        "s",
        "ed"
      ],
      [
        "u",
        "re"
      ],
      [
        "th",
        "an"
      ],
      [
        "in",
        "t"
      ],
      [
        "be",
        "fore"
      ],
      [
        "se",
        "e"
      ],
      [
        "ta",
        "k"
      ],
      [
        "for",
        "ce"
      ],
      [
        "develop",
        "ment"
      ],
      [
        "possi",
        "ble"
      ],
      [
        "exchan",
        "ge"
      ],
      [
        "of",
        "ten"
      ],
      [
        "er",
        "s"
      ],
      [
        "sh",
        "ow"
      ],
      [
        "pr",
        "act"
      ],
      [
        "act",
        "ion"
      ],
      [
        "pl",
        "es"
      ],
      [
        "Rook",
        "s"
      ],
      [
        "follow",
        "ing"
      ],
      [
        "how",
        "ever"
      ],
      [
        "2",
        "9"
      ],
      [
        "b",
        "in"
      ],
      [
        "d",
        "is"
      ],
      [
        "g",
        "n"
      ],
      [
        "m",
        "es"
      ],
      [
        "th",
        "r"
      ],
      [
        "the",
        "se"
      ],
      [
        "st",
        "e"
      ],
      [
        "la",
        "r"
      ],
      [
        "se",
        "l"
      ],
      [
        "square",
        "s"
      ],
      [
        "whe",
        "re"
      ],
      [
        "e",
        "t"
      ],
      [
        "e",
        "ct"
      ],
      [
        "p",
        "o"
      ],
      [
        "ou",
        "ght"
      ],
      [
        "los",
        "e"
      ],
      [
        "difficul",
        "t"
      ],
      [
        "l",
        "ong"
      ],
      [
        "l",
        "ost"
      ],
      [
        "m",
        "uch"
      ],
      [
        "re",
        "n"
      ],
      [
        "op",
        "position"
      ],
      [
        "position",
        "s"
      ],
      [
        "sel",
        "f"
      ],
      [
        "a",
        "g"
      ],
      [
        "g",
        "reat"
      ],
      [
        "i",
        "de"
      ],
      [
        "j",
        "ect"
      ],
      [
        "o",
        "l"
      ],
      [
        "p",
        "as"
      ],
      [
        "an",
        "t"
      ],
      [
        "at",
        "ed"
      ],
      [
        "se",
        "en"
      ],
      [
        "no",
        "thing"
      ],
      [
        "so",
        "on"
      ],
      [
        "sh",
        "own"
      ],
      [
        "ab",
        "ly"
      ],
      [
        "i",
        "ous"
      ],
      [
        "l",
        "ess"
      ],
      [
        "p",
        "are"
      ],
      [
        "w",
        "or"
      ],
      [
        "the",
        "m"
      ],
      [
        "is",
        "e"
      ],
      [
        "re",
        "ct"
      ],
      [
        "play",
        "s"
      ],
      [
        "ex",
        "ce"
      ],
      [
        "ces",
        "s"
      ],
      [
        "there",
        "fore"
      ],
      [
        "do",
        "es"
      ],
      [
        "par",
        "t"
      ],
      [
        "3",
        "0"
      ],
      [
        "G",
        "AM"
      ],
      [
        "e",
        "ven"
      ],
      [
        "l",
        "an"
      ],
      [
        "p",
        "on"
      ],
      [
        "u",
        "m"
      ],
      [
        "it",
        "s"
      ],
      [
        "al",
        "ready"
      ],
      [
        "with",
        "out"
      ],
      [
        "whi",
        "le"
      ],
      [
        "ic",
        "al"
      ],
      [
        "com",
        "bin"
      ],
      [
        "id",
        "ent"
      ],
      [
        "def",
        "end"
      ],
      [
        "def",
        "ence"
      ],
      [
        "sim",
        "ple"
      ],
      [
        "oun",
        "t"
      ],
      [
        "eas",
        "i"
      ],
      [
        "reas",
        "on"
      ],
      [
        "qui",
        "ck"
      ],
      [
        "3",
        "1"
      ],
      [
        "d",
        "es"
      ],
      [
        "e",
        "u"
      ],
      [
        "f",
        "u"
      ],
      [
        "f",
        "ul"
      ],
      [
        "l",
        "in"
      ],
      [
        "o",
        "eu"
      ],
      [
        "s",
        "to"
      ],
      [
        "th",
        "ree"
      ],
      [
        "an",
        "ce"
      ],
      [
        "op",
        "pon"
      ],
      [
        "ar",
        "y"
      ],
      [
        "for",
        "m"
      ],
      [
        "for",
        "ced"
      ],
      [
        "un",
        "der"
      ],
      [
        "ob",
        "ject"
      ],
      [
        "chan",
        "ce"
      ],
      [
        "lat",
        "er"
      ],
      [
        "man",
        "oeu"
      ],
      [
        "thr",
        "ough"
      ],
      [
        "fu",
        "ll"
      ],
      [
        "oppon",
        "ent"
      ],
      [
        "manoeu",
        "v"
      ],
      [
        "a",
        "v"
      ],
      [
        "a",
        "ch"
      ],
      [
        "c",
        "are"
      ],
      [
        "d",
        "ou"
      ],
      [
        "i",
        "ed"
      ],
      [
        "i",
        "gn"
      ],
      [
        "o",
        "ve"
      ],
      [
        "r",
        "ight"
      ],
      [
        "w",
        "on"
      ],
      [
        "on",
        "t"
      ],
      [
        "or",
        "d"
      ],
      [
        "wh",
        "at"
      ],
      [
        "ab",
        "ove"
      ],
      [
        "ate",
        "ly"
      ],
      [
        "ic",
        "ally"
      ],
      [
        "im",
        "port"
      ],
      [
        "fr",
        "ont"
      ],
      [
        "cas",
        "es"
      ],
      [
        "eri",
        "al"
      ],
      [
        "mat",
        "erial"
      ],
      [
        "di",
        "rect"
      ],
      [
        "fi",
        "le"
      ],
      [
        "pas",
        "sed"
      ],
      [
        "3",
        "3"
      ],
      [
        "R",
        "es"
      ],
      [
        "T",
        "H"
      ],
      [
        "b",
        "ad"
      ],
      [
        "i",
        "ce"
      ],
      [
        "v",
        "al"
      ],
      [
        "ar",
        "r"
      ],
      [
        "ha",
        "ving"
      ],
      [
        "con",
        "d"
      ],
      [
        "ma",
        "in"
      ],
      [
        "ign",
        "s"
      ],
      [
        "Res",
        "igns"
      ],
      [
        "3",
        "2"
      ],
      [
        "3",
        "4"
      ],
      [
        "3",
        "5"
      ],
      [
        "C",
        "ap"
      ],
      [
        "N",
        "o"
      ],
      [
        "c",
        "ing"
      ],
      [
        "e",
        "v"
      ],
      [
        "h",
        "o"
      ],
      [
        "h",
        "and"
      ],
      [
        "i",
        "lar"
      ],
      [
        "m",
        "ed"
      ],
      [
        "p",
        "er"
      ],
      [
        "p",
        "ly"
      ],
      [
        "in",
        "iti"
      ],
      [
        "le",
        "a"
      ],
      [
        "op",
        "pos"
      ],
      [
        "de",
        "m"
      ],
      [
        "ab",
        "lan"
      ],
      [
        "pre",
        "s"
      ],
      [
        "pie",
        "ce"
      ],
      [
        "threat",
        "ening"
      ],
      [
        "prev",
        "ious"
      ],
      [
        "sim",
        "ilar"
      ],
      [
        "gener",
        "al"
      ],
      [
        "threaten",
        "s"
      ],
      [
        "GAM",
        "E"
      ],
      [
        "Cap",
        "ablan"
      ],
      [
        "Capablan",
        "ca"
      ],
      [
        "3",
        "9"
      ],
      [
        "4",
        "0"
      ],
      [
        "4",
        "1"
      ],
      [
        "b",
        "l"
      ],
      [
        "d",
        "an"
      ],
      [
        "f",
        "ree"
      ],
      [
        "g",
        "er"
      ],
      [
        "i",
        "ll"
      ],
      [
        "n",
        "er"
      ],
      [
        "o",
        "d"
      ],
      [
        "o",
        "ver"
      ],
      [
        "y",
        "our"
      ],
      [
        "the",
        "y"
      ],
      [
        "re",
        "st"
      ],
      [
        "of",
        "f"
      ],
      [
        "le",
        "ast"
      ],
      [
        "op",
        "en"
      ],
      [
        "for",
        "ces"
      ],
      [
        "con",
        "t"
      ],
      [
        "Bishop",
        "s"
      ],
      [
        "com",
        "pl"
      ],
      [
        "ma",
        "k"
      ],
      [
        "fe",
        "w"
      ],
      [
        "di",
        "ag"
      ],
      [
        "po",
        "int"
      ],
      [
        "ide",
        "a"
      ],
      [
        "combin",
        "ation"
      ],
      [
        "sto",
        "p"
      ],
      [
        "initi",
        "ative"
      ],
      [
        "dan",
        "ger"
      ],
      [
        "3",
        "8"
      ],
      [
        "p",
        "ost"
      ],
      [
        "wh",
        "o"
      ],
      [
        "play",
        "er"
      ],
      [
        "con",
        "side"
      ],
      [
        "com",
        "es"
      ],
      [
        "qu",
        "ent"
      ],
      [
        "sa",
        "fe"
      ],
      [
        "fin",
        "ally"
      ],
      [
        "bo",
        "th"
      ],
      [
        "Th",
        "us"
      ],
      [
        "easi",
        "ly"
      ],
      [
        "quick",
        "ly"
      ],
      [
        "cont",
        "in"
      ],
      [
        "conside",
        "red"
      ],
      [
        "3",
        "6"
      ],
      [
        "3",
        "7"
      ],
      [
        "c",
        "arr"
      ],
      [
        "e",
        "f"
      ],
      [
        "m",
        "is"
      ],
      [
        "m",
        "id"
      ],
      [
        "p",
        "ow"
      ],
      [
        "en",
        "si"
      ],
      [
        "me",
        "ans"
      ],
      [
        "si",
        "der"
      ],
      [
        "con",
        "sider"
      ],
      [
        "Knight",
        "s"
      ],
      [
        "fe",
        "ct"
      ],
      [
        "way",
        "s"
      ],
      [
        "fin",
        "d"
      ],
      [
        "oun",
        "d"
      ],
      [
        "gener",
        "ally"
      ],
      [
        "pract",
        "ically"
      ],
      [
        "pow",
        "er"
      ],
      [
        "ensi",
        "ve"
      ],
      [
        "4",
        "2"
      ],
      [
        "O",
        "n"
      ],
      [
        "d",
        "le"
      ],
      [
        "d",
        "one"
      ],
      [
        "i",
        "es"
      ],
      [
        "u",
        "al"
      ],
      [
        "w",
        "ard"
      ],
      [
        "se",
        "quent"
      ],
      [
        "si",
        "des"
      ],
      [
        "we",
        "re"
      ],
      [
        "im",
        "med"
      ],
      [
        "opening",
        "s"
      ],
      [
        "princi",
        "ples"
      ],
      [
        "full",
        "y"
      ],
      [
        "TH",
        "E"
      ],
      [
        "mid",
        "dle"
      ],
      [
        "immed",
        "i"
      ],
      [
        ")",
        ","
      ],
      [
        "B",
        "ut"
      ],
      [
        "c",
        "r"
      ],
      [
        "o",
        "lat"
      ],
      [
        "t",
        "ed"
      ],
      [
        "u",
        "ation"
      ],
      [
        "st",
        "ill"
      ],
      [
        "aw",
        "ay"
      ],
      [
        "al",
        "ways"
      ],
      [
        "ge",
        "t"
      ],
      [
        "con",
        "tr"
      ],
      [
        "ti",
        "mes"
      ],
      [
        "com",
        "ple"
      ],
      [
        "pe",
        "ct"
      ],
      [
        "str",
        "ong"
      ],
      [
        "acc",
        "ord"
      ],
      [
        "ste",
        "ad"
      ],
      [
        "val",
        "ue"
      ],
      [
        "ev",
        "ident"
      ],
      [
        "lea",
        "ve"
      ],
      [
        "A",
        "s"
      ],
      [
        "W",
        "e"
      ],
      [
        "a",
        "ly"
      ],
      [
        "b",
        "il"
      ],
      [
        "e",
        "st"
      ],
      [
        "i",
        "ent"
      ],
      [
        "k",
        "now"
      ],
      [
        "n",
        "am"
      ],
      [
        "n",
        "um"
      ],
      [
        "p",
        "en"
      ],
      [
        "re",
        "al"
      ],
      [
        "be",
        "r"
      ],
      [
        "le",
        "ar"
      ],
      [
        "su",
        "c"
      ],
      [
        "pr",
        "ob"
      ],
      [
        "sa",
        "id"
      ],
      [
        "chan",
        "ces"
      ],
      [
        "def",
        "ensive"
      ],
      [
        "give",
        "s"
      ],
      [
        "him",
        "self"
      ],
      [
        "IN",
        "G"
      ],
      [
        "mak",
        "es"
      ],
      [
        "sequent",
        "ly"
      ],
      [
        "A",
        "T"
      ],
      [
        "A",
        "t"
      ],
      [
        "a",
        "ge"
      ],
      [
        "b",
        "ook"
      ],
      [
        "c",
        "all"
      ],
      [
        "d",
        "id"
      ],
      [
        "l",
        "i"
      ],
      [
        "l",
        "ook"
      ],
      [
        "m",
        "ind"
      ],
      [
        "n",
        "at"
      ],
      [
        "q",
        "ue"
      ],
      [
        "r",
        "an"
      ],
      [
        "s",
        "is"
      ],
      [
        "w",
        "an"
      ],
      [
        "in",
        "stead"
      ],
      [
        "is",
        "olat"
      ],
      [
        "to",
        "o"
      ],
      [
        "ter",
        "n"
      ],
      [
        "com",
        "m"
      ],
      [
        "ma",
        "st"
      ],
      [
        "fe",
        "ren"
      ],
      [
        "co",
        "l"
      ],
      [
        "eri",
        "or"
      ],
      [
        "mat",
        "ter"
      ],
      [
        "variation",
        "s"
      ],
      [
        "princi",
        "ple"
      ],
      [
        "tak",
        "en"
      ],
      [
        "dem",
        "on"
      ],
      [
        "immedi",
        "ately"
      ],
      [
        "nam",
        "ent"
      ],
      [
        "wan",
        "ts"
      ],
      [
        "C",
        "ast"
      ],
      [
        "T",
        "o"
      ],
      [
        "T",
        "our"
      ],
      [
        "f",
        "a"
      ],
      [
        "l",
        "ie"
      ],
      [
        "t",
        "le"
      ],
      [
        "w",
        "r"
      ],
      [
        "in",
        "te"
      ],
      [
        "st",
        "and"
      ],
      [
        "ch",
        "e"
      ],
      [
        "he",
        "l"
      ],
      [
        "con",
        "sequently"
      ],
      [
        "attack",
        "ing"
      ],
      [
        "threaten",
        "ed"
      ],
      [
        "vi",
        "a"
      ],
      [
        "ne",
        "cess"
      ],
      [
        "sup",
        "erior"
      ],
      [
        "manoeuv",
        "re"
      ],
      [
        "dou",
        "b"
      ],
      [
        "accord",
        "ing"
      ],
      [
        "isolat",
        "ed"
      ],
      [
        "col",
        "our"
      ],
      [
        "Tour",
        "nament"
      ],
      [
        "inte",
        "rest"
      ],
      [
        ")",
        ";"
      ],
      [
        "A",
        "gain"
      ],
      [
        "M",
        "ar"
      ],
      [
        "O",
        "P"
      ],
      [
        "b",
        "re"
      ],
      [
        "c",
        "or"
      ],
      [
        "f",
        "ar"
      ],
      [
        "m",
        "any"
      ],
      [
        "n",
        "ess"
      ],
      [
        "s",
        "eri"
      ],
      [
        "th",
        "ough"
      ],
      [
        "th",
        "ought"
      ],
      [
        "re",
        "ly"
      ],
      [
        "re",
        "su"
      ],
      [
        "re",
        "main"
      ],
      [
        "op",
        "e"
      ],
      [
        "ce",
        "ed"
      ],
      [
        "pos",
        "e"
      ],
      [
        "ex",
        "p"
      ],
      [
        "su",
        "f"
      ],
      [
        "un",
        "less"
      ],
      [
        "te",
        "m"
      ],
      [
        "los",
        "es"
      ],
      [
        "go",
        "ing"
      ],
      [
        "str",
        "ate"
      ],
      [
        "exam",
        "in"
      ],
      [
        "exce",
        "pt"
      ],
      [
        "lin",
        "e"
      ],
      [
        "import",
        "ant"
      ],
      [
        "comple",
        "te"
      ],
      [
        "num",
        "ber"
      ],
      [
        "prob",
        "ably"
      ],
      [
        "li",
        "ke"
      ],
      [
        "que",
        "st"
      ],
      [
        "Mar",
        "shall"
      ],
      [
        "bre",
        "ak"
      ],
      [
        "F",
        "r"
      ],
      [
        "O",
        "f"
      ],
      [
        "P",
        "A"
      ],
      [
        "R",
        "O"
      ],
      [
        "c",
        "er"
      ],
      [
        "c",
        "lose"
      ],
      [
        "f",
        "er"
      ],
      [
        "s",
        "it"
      ],
      [
        "s",
        "ing"
      ],
      [
        "y",
        "et"
      ],
      [
        "in",
        "ed"
      ],
      [
        "on",
        "al"
      ],
      [
        "be",
        "ing"
      ],
      [
        "be",
        "comes"
      ],
      [
        "or",
        "m"
      ],
      [
        "as",
        "k"
      ],
      [
        "he",
        "ad"
      ],
      [
        "al",
        "tern"
      ],
      [
        "ga",
        "mes"
      ],
      [
        "ex",
        "pla"
      ],
      [
        "so",
        "l"
      ],
      [
        "su",
        "re"
      ],
      [
        "con",
        "sis"
      ],
      [
        "act",
        "ual"
      ],
      [
        "ma",
        "de"
      ],
      [
        "sa",
        "cr"
      ],
      [
        "stud",
        "y"
      ],
      [
        "thing",
        "s"
      ],
      [
        "br",
        "ought"
      ],
      [
        "weak",
        "ness"
      ],
      [
        "ac",
        "compl"
      ],
      [
        "obtain",
        "ed"
      ],
      [
        "exam",
        "ple"
      ],
      [
        "exam",
        "ples"
      ],
      [
        "acc",
        "ount"
      ],
      [
        "wor",
        "k"
      ],
      [
        "care",
        "fully"
      ],
      [
        "oppos",
        "ing"
      ],
      [
        "diag",
        "onal"
      ],
      [
        "che",
        "ck"
      ],
      [
        "doub",
        "t"
      ],
      [
        "resu",
        "l"
      ],
      [
        "quest",
        "ion"
      ],
      [
        "Fr",
        "om"
      ],
      [
        "sit",
        "uation"
      ],
      [
        "altern",
        "ative"
      ],
      [
        "sacr",
        "if"
      ],
      [
        "accompl",
        "ish"
      ],
      [
        "4",
        "3"
      ],
      [
        "4",
        "4"
      ],
      [
        "C",
        "H"
      ],
      [
        "D",
        "E"
      ],
      [
        "E",
        "R"
      ],
      [
        "L",
        "ask"
      ],
      [
        "a",
        "ther"
      ],
      [
        "a",
        "head"
      ],
      [
        "f",
        "ur"
      ],
      [
        "h",
        "ind"
      ],
      [
        "m",
        "ar"
      ],
      [
        "o",
        "ck"
      ],
      [
        "p",
        "ut"
      ],
      [
        "s",
        "k"
      ],
      [
        "t",
        "ing"
      ],
      [
        "t",
        "ly"
      ],
      [
        "t",
        "ent"
      ],
      [
        "w",
        "ise"
      ],
      [
        "an",
        "other"
      ],
      [
        "Wh",
        "en"
      ],
      [
        "move",
        "d"
      ],
      [
        "pre",
        "pare"
      ],
      [
        "tr",
        "y"
      ],
      [
        "develop",
        "ed"
      ],
      [
        "fic",
        "ient"
      ],
      [
        "iti",
        "es"
      ],
      [
        "tak",
        "es"
      ],
      [
        "show",
        "s"
      ],
      [
        "import",
        "ance"
      ],
      [
        "ho",
        "ld"
      ],
      [
        "bl",
        "ock"
      ],
      [
        "carr",
        "ied"
      ],
      [
        "pen",
        "s"
      ],
      [
        "suc",
        "cess"
      ],
      [
        "ran",
        "k"
      ],
      [
        "lie",
        "ve"
      ],
      [
        "wr",
        "ong"
      ],
      [
        "interest",
        "ing"
      ],
      [
        "seri",
        "ous"
      ],
      [
        "suf",
        "ficient"
      ],
      [
        "strate",
        "g"
      ],
      [
        "Lask",
        "er"
      ],
      [
        "A",
        "N"
      ],
      [
        "C",
        "E"
      ],
      [
        "I",
        "T"
      ],
      [
        "O",
        "F"
      ],
      [
        "W",
        "i"
      ],
      [
        "a",
        "im"
      ],
      [
        "c",
        "ur"
      ],
      [
        "c",
        "ount"
      ],
      [
        "e",
        "ach"
      ],
      [
        "g",
        "r"
      ],
      [
        "g",
        "ed"
      ],
      [
        "l",
        "it"
      ],
      [
        "l",
        "ing"
      ],
      [
        "m",
        "s"
      ],
      [
        "n",
        "ed"
      ],
      [
        "n",
        "ext"
      ],
      [
        "n",
        "ever"
      ],
      [
        "o",
        "c"
      ],
      [
        "r",
        "ather"
      ],
      [
        "t",
        "ur"
      ],
      [
        "u",
        "ally"
      ],
      [
        "th",
        "in"
      ],
      [
        "in",
        "ter"
      ],
      [
        "the",
        "ir"
      ],
      [
        "an",
        "aly"
      ],
      [
        "at",
        "es"
      ],
      [
        "it",
        "self"
      ],
      [
        "to",
        "ge"
      ],
      [
        "st",
        "ated"
      ],
      [
        "st",
        "age"
      ],
      [
        "la",
        "y"
      ],
      [
        "be",
        "lieve"
      ],
      [
        "as",
        "su"
      ],
      [
        "os",
        "e"
      ],
      [
        "le",
        "ad"
      ],
      [
        "de",
        "c"
      ],
      [
        "ha",
        "p"
      ],
      [
        "King",
        "s"
      ],
      [
        "ti",
        "c"
      ],
      [
        "ab",
        "out"
      ],
      [
        "advan",
        "cing"
      ],
      [
        "id",
        "ed"
      ],
      [
        "follow",
        "s"
      ],
      [
        "19",
        "13"
      ],
      [
        "tr",
        "ue"
      ],
      [
        "some",
        "what"
      ],
      [
        "sim",
        "ply"
      ],
      [
        "Th",
        "en"
      ],
      [
        "dif",
        "feren"
      ],
      [
        "obtain",
        "ing"
      ],
      [
        "possi",
        "bil"
      ],
      [
        "pro",
        "ve"
      ],
      [
        "bring",
        "s"
      ],
      [
        "vi",
        "ol"
      ],
      [
        "keep",
        "ing"
      ],
      [
        "long",
        "er"
      ],
      [
        "pare",
        "n"
      ],
      [
        "pres",
        "ent"
      ],
      [
        "post",
        "ed"
      ],
      [
        "ef",
        "fect"
      ],
      [
        "contr",
        "ol"
      ],
      [
        "call",
        "ed"
      ],
      [
        "mast",
        "er"
      ],
      [
        "hel",
        "p"
      ],
      [
        "necess",
        "ary"
      ],
      [
        "exp",
        "eri"
      ],
      [
        "fur",
        "ther"
      ],
      [
        "sk",
        "i"
      ],
      [
        "Wi",
        "th"
      ],
      [
        "lit",
        "tle"
      ],
      [
        "thin",
        "k"
      ],
      [
        "toge",
        "ther"
      ],
      [
        "A",
        "n"
      ],
      [
        "B",
        "e"
      ],
      [
        "D",
        "r"
      ],
      [
        "E",
        "x"
      ],
      [
        "H",
        "a"
      ],
      [
        "J",
        "an"
      ],
      [
        "R",
        "E"
      ],
      [
        "R",
        "u"
      ],
      [
        "S",
        "uch"
      ],
      [
        "W",
        "N"
      ],
      [
        "c",
        "oun"
      ],
      [
        "e",
        "l"
      ],
      [
        "e",
        "very"
      ],
      [
        "f",
        "t"
      ],
      [
        "f",
        "re"
      ],
      [
        "f",
        "av"
      ],
      [
        "h",
        "i"
      ],
      [
        "m",
        "in"
      ],
      [
        "r",
        "am"
      ],
      [
        "s",
        "ay"
      ],
      [
        "w",
        "er"
      ],
      [
        "y",
        "ou"
      ],
      [
        "th",
        "ose"
      ],
      [
        "at",
        "ing"
      ],
      [
        "at",
        "tem"
      ],
      [
        "at",
        "tent"
      ],
      [
        "ll",
        "ent"
      ],
      [
        "be",
        "ar"
      ],
      [
        "be",
        "sides"
      ],
      [
        "be",
        "hind"
      ],
      [
        "he",
        "re"
      ],
      [
        "me",
        "rely"
      ],
      [
        "ow",
        "ski"
      ],
      [
        "le",
        "ft"
      ],
      [
        "op",
        "port"
      ],
      [
        "se",
        "cond"
      ],
      [
        "play",
        "ers"
      ],
      [
        "for",
        "cing"
      ],
      [
        "ex",
        "pect"
      ],
      [
        "su",
        "b"
      ],
      [
        "ic",
        "ated"
      ],
      [
        "id",
        "es"
      ],
      [
        "Queen",
        "s"
      ],
      [
        "am",
        "ple"
      ],
      [
        "other",
        "wise"
      ],
      [
        "develop",
        "ing"
      ],
      [
        "fin",
        "e"
      ],
      [
        "mat",
        "es"
      ],
      [
        "whe",
        "ther"
      ],
      [
        "ty",
        "pe"
      ],
      [
        "begin",
        "ner"
      ],
      [
        "fi",
        "x"
      ],
      [
        "sup",
        "port"
      ],
      [
        "sup",
        "pose"
      ],
      [
        "exce",
        "llent"
      ],
      [
        "direct",
        "ly"
      ],
      [
        "No",
        "t"
      ],
      [
        "diag",
        "ram"
      ],
      [
        "safe",
        "ty"
      ],
      [
        "contin",
        "u"
      ],
      [
        "mis",
        "take"
      ],
      [
        "power",
        "ful"
      ],
      [
        "PA",
        "WN"
      ],
      [
        "differen",
        "t"
      ],
      [
        "viol",
        "ent"
      ],
      [
        "paren",
        "tly"
      ],
      [
        "experi",
        "ence"
      ],
      [
        "Jan",
        "owski"
      ],
      [
        "coun",
        "ter"
      ],
      [
        "attent",
        "ion"
      ],
      [
        "opport",
        "un"
      ],
      [
        "4",
        "5"
      ],
      [
        "A",
        "L"
      ],
      [
        "A",
        "fter"
      ],
      [
        "H",
        "is"
      ],
      [
        "U",
        "E"
      ],
      [
        "c",
        "ir"
      ],
      [
        "c",
        "um"
      ],
      [
        "f",
        "ight"
      ],
      [
        "g",
        "th"
      ],
      [
        "h",
        "ope"
      ],
      [
        "l",
        "u"
      ],
      [
        "l",
        "ed"
      ],
      [
        "p",
        "ur"
      ],
      [
        "r",
        "u"
      ],
      [
        "r",
        "y"
      ],
      [
        "r",
        "id"
      ],
      [
        "s",
        "l"
      ],
      [
        "s",
        "y"
      ],
      [
        "s",
        "pe"
      ],
      [
        "v",
        "is"
      ],
      [
        "an",
        "ces"
      ],
      [
        "re",
        "me"
      ],
      [
        "re",
        "ate"
      ],
      [
        "re",
        "gain"
      ],
      [
        "re",
        "ply"
      ],
      [
        "st",
        "ration"
      ],
      [
        "st",
        "ren"
      ],
      [
        "st",
        "ances"
      ],
      [
        "es",
        "e"
      ],
      [
        "al",
        "together"
      ],
      [
        "for",
        "t"
      ],
      [
        "ex",
        "er"
      ],
      [
        "ver",
        "s"
      ],
      [
        "we",
        "en"
      ],
      [
        "com",
        "pens"
      ],
      [
        "def",
        "ending"
      ],
      [
        "te",
        "ct"
      ],
      [
        "bet",
        "ween"
      ],
      [
        "ap",
        "pl"
      ],
      [
        "weak",
        "en"
      ],
      [
        "los",
        "s"
      ],
      [
        "draw",
        "ing"
      ],
      [
        "Th",
        "ese"
      ],
      [
        "pro",
        "ceed"
      ],
      [
        "pro",
        "tect"
      ],
      [
        "eas",
        "y"
      ],
      [
        "There",
        "fore"
      ],
      [
        "av",
        "o"
      ],
      [
        "cond",
        "ition"
      ],
      [
        "per",
        "fect"
      ],
      [
        "pres",
        "sure"
      ],
      [
        "ward",
        "s"
      ],
      [
        "strong",
        "er"
      ],
      [
        "nat",
        "ur"
      ],
      [
        "comm",
        "and"
      ],
      [
        "demon",
        "stration"
      ],
      [
        "cor",
        "ner"
      ],
      [
        "complete",
        "ly"
      ],
      [
        "expla",
        "ined"
      ],
      [
        "sacrif",
        "ice"
      ],
      [
        "block",
        "s"
      ],
      [
        "AN",
        "D"
      ],
      [
        "aim",
        "s"
      ],
      [
        "count",
        "ing"
      ],
      [
        "fav",
        "our"
      ],
      [
        "opportun",
        "ity"
      ],
      [
        "cir",
        "cum"
      ],
      [
        "ru",
        "le"
      ],
      [
        "sy",
        "ste"
      ],
      [
        "stren",
        "gth"
      ],
      [
        "circum",
        "stances"
      ],
      [
        ".",
        "["
      ],
      [
        "4",
        "6"
      ],
      [
        "4",
        "8"
      ],
      [
        "5",
        "1"
      ],
      [
        "A",
        "C"
      ],
      [
        "A",
        "P"
      ],
      [
        "A",
        "l"
      ],
      [
        "B",
        "es"
      ],
      [
        "C",
        "ha"
      ],
      [
        "E",
        "D"
      ],
      [
        "F",
        "or"
      ],
      [
        "H",
        "ad"
      ],
      [
        "O",
        "N"
      ],
      [
        "P",
        "e"
      ],
      [
        "S",
        "t"
      ],
      [
        "_",
        "the"
      ],
      [
        "b",
        "it"
      ],
      [
        "b",
        "ur"
      ],
      [
        "c",
        "reas"
      ],
      [
        "c",
        "lear"
      ],
      [
        "d",
        "ue"
      ],
      [
        "d",
        "own"
      ],
      [
        "f",
        "ound"
      ],
      [
        "g",
        "ment"
      ],
      [
        "h",
        "ard"
      ],
      [
        "i",
        "al"
      ],
      [
        "j",
        "ud"
      ],
      [
        "k",
        "ind"
      ],
      [
        "m",
        "ing"
      ],
      [
        "p",
        "in"
      ],
      [
        "s",
        "es"
      ],
      [
        "s",
        "bur"
      ],
      [
        "u",
        "ct"
      ],
      [
        "u",
        "lar"
      ],
      [
        "v",
        "o"
      ],
      [
        "th",
        "or"
      ],
      [
        "th",
        "od"
      ],
      [
        "in",
        "creas"
      ],
      [
        "re",
        "qui"
      ],
      [
        "re",
        "ach"
      ],
      [
        "en",
        "e"
      ],
      [
        "en",
        "orm"
      ],
      [
        "ou",
        "ble"
      ],
      [
        "er",
        "ve"
      ],
      [
        "or",
        "y"
      ],
      [
        "me",
        "thod"
      ],
      [
        "mo",
        "ment"
      ],
      [
        "al",
        "ong"
      ],
      [
        "pla",
        "ce"
      ],
      [
        "se",
        "c"
      ],
      [
        "se",
        "ver"
      ],
      [
        "ad",
        "vis"
      ],
      [
        "ation",
        "s"
      ],
      [
        "sh",
        "if"
      ],
      [
        "ti",
        "l"
      ],
      [
        "ti",
        "es"
      ],
      [
        "ti",
        "ce"
      ],
      [
        "ke",
        "pt"
      ],
      [
        "end",
        "ed"
      ],
      [
        "im",
        "possible"
      ],
      [
        "com",
        "pe"
      ],
      [
        "pre",
        "fer"
      ],
      [
        "there",
        "by"
      ],
      [
        "un",
        "til"
      ],
      [
        "fe",
        "at"
      ],
      [
        "fe",
        "red"
      ],
      [
        "ven",
        "ing"
      ],
      [
        "dr",
        "i"
      ],
      [
        "dr",
        "ive"
      ],
      [
        "tr",
        "ouble"
      ],
      [
        "some",
        "times"
      ],
      [
        "ap",
        "parently"
      ],
      [
        "draw",
        "s"
      ],
      [
        "go",
        "es"
      ],
      [
        "read",
        "er"
      ],
      [
        "gi",
        "ving"
      ],
      [
        "bring",
        "ing"
      ],
      [
        "difficul",
        "ties"
      ],
      [
        "EN",
        "D"
      ],
      [
        "EN",
        "T"
      ],
      [
        "begin",
        "s"
      ],
      [
        "res",
        "pect"
      ],
      [
        "ans",
        "wer"
      ],
      [
        "see",
        "ms"
      ],
      [
        "tak",
        "ing"
      ],
      [
        "pract",
        "ical"
      ],
      [
        "wor",
        "th"
      ],
      [
        "reason",
        "s"
      ],
      [
        "through",
        "out"
      ],
      [
        "manoeuv",
        "res"
      ],
      [
        "care",
        "ful"
      ],
      [
        "ord",
        "in"
      ],
      [
        "No",
        "tice"
      ],
      [
        "oppos",
        "ite"
      ],
      [
        "previous",
        "ly"
      ],
      [
        "who",
        "le"
      ],
      [
        "carr",
        "y"
      ],
      [
        "leave",
        "s"
      ],
      [
        "nat",
        "ure"
      ],
      [
        "fa",
        "il"
      ],
      [
        "remain",
        "s"
      ],
      [
        "examin",
        "e"
      ],
      [
        "cer",
        "tain"
      ],
      [
        "tur",
        "n"
      ],
      [
        "inter",
        "vening"
      ],
      [
        "possibil",
        "ities"
      ],
      [
        "Ex",
        "ample"
      ],
      [
        "fort",
        "un"
      ],
      [
        "perfect",
        "ly"
      ],
      [
        "Bes",
        "ides"
      ],
      [
        "jud",
        "gment"
      ],
      [
        "enorm",
        "ous"
      ],
      [
        "sever",
        "al"
      ],
      [
        "advis",
        "able"
      ],
      [
        "4",
        "7"
      ],
      [
        "4",
        "9"
      ],
      [
        "5",
        "0"
      ],
      [
        "5",
        "2"
      ],
      [
        "5",
        "3"
      ],
      [
        "5",
        "6"
      ],
      [
        "5",
        "7"
      ],
      [
        "B",
        "est"
      ],
      [
        "G",
        "e"
      ],
      [
        "I",
        "V"
      ],
      [
        "L",
        "OP"
      ],
      [
        "Q",
        "UE"
      ],
      [
        "S",
        "e"
      ],
      [
        "S",
        "ir"
      ],
      [
        "T",
        "ER"
      ],
      [
        "T",
        "AC"
      ],
      [
        "a",
        "ut"
      ],
      [
        "c",
        "reate"
      ],
      [
        "e",
        "w"
      ],
      [
        "e",
        "le"
      ],
      [
        "f",
        "our"
      ],
      [
        "i",
        "gin"
      ],
      [
        "w",
        "a"
      ],
      [
        "w",
        "ant"
      ],
      [
        "is",
        "ed"
      ],
      [
        "re",
        "si"
      ],
      [
        "of",
        "fered"
      ],
      [
        "ll",
        "ed"
      ],
      [
        "be",
        "come"
      ],
      [
        "be",
        "aut"
      ],
      [
        "or",
        "ge"
      ],
      [
        "or",
        "igin"
      ],
      [
        "ed",
        "om"
      ],
      [
        "me",
        "et"
      ],
      [
        "mo",
        "ving"
      ],
      [
        "mo",
        "bil"
      ],
      [
        "le",
        "t"
      ],
      [
        "ent",
        "ial"
      ],
      [
        "pos",
        "es"
      ],
      [
        "al",
        "though"
      ],
      [
        "pla",
        "ced"
      ],
      [
        "se",
        "es"
      ],
      [
        "ta",
        "ct"
      ],
      [
        "ad",
        "vers"
      ],
      [
        "ar",
        "t"
      ],
      [
        "wh",
        "y"
      ],
      [
        "om",
        "as"
      ],
      [
        "con",
        "st"
      ],
      [
        "ter",
        "sbur"
      ],
      [
        "van",
        "a"
      ],
      [
        "advan",
        "ced"
      ],
      [
        "ca",
        "pt"
      ],
      [
        "act",
        "ually"
      ],
      [
        "ive",
        "ly"
      ],
      [
        "ul",
        "ti"
      ],
      [
        "ak",
        "ing"
      ],
      [
        "dr",
        "awn"
      ],
      [
        "tr",
        "a"
      ],
      [
        "tr",
        "ies"
      ],
      [
        "ess",
        "ential"
      ],
      [
        "Th",
        "omas"
      ],
      [
        "exchan",
        "ged"
      ],
      [
        "EN",
        "CE"
      ],
      [
        "vi",
        "z"
      ],
      [
        "proper",
        "ly"
      ],
      [
        "int",
        "ended"
      ],
      [
        "pract",
        "ice"
      ],
      [
        "great",
        "er"
      ],
      [
        "easi",
        "er"
      ],
      [
        "av",
        "a"
      ],
      [
        "dou",
        "bl"
      ],
      [
        "ho",
        "le"
      ],
      [
        "stop",
        "p"
      ],
      [
        "contin",
        "ue"
      ],
      [
        "On",
        "ce"
      ],
      [
        "real",
        "ity"
      ],
      [
        "lear",
        "n"
      ],
      [
        "AT",
        "TAC"
      ],
      [
        "look",
        "s"
      ],
      [
        "Cast",
        "le"
      ],
      [
        "examin",
        "ation"
      ],
      [
        "sol",
        "id"
      ],
      [
        "resul",
        "t"
      ],
      [
        "accomplish",
        "ed"
      ],
      [
        "CH",
        "AP"
      ],
      [
        "mar",
        "k"
      ],
      [
        "strateg",
        "ical"
      ],
      [
        "IT",
        "I"
      ],
      [
        "oc",
        "cur"
      ],
      [
        "effect",
        "ive"
      ],
      [
        "Be",
        "fore"
      ],
      [
        "Ha",
        "vana"
      ],
      [
        "el",
        "se"
      ],
      [
        "fre",
        "edom"
      ],
      [
        "attem",
        "pt"
      ],
      [
        "compens",
        "ation"
      ],
      [
        "natur",
        "al"
      ],
      [
        "syste",
        "m"
      ],
      [
        "Pe",
        "tersbur"
      ],
      [
        "increas",
        "es"
      ],
      [
        "sec",
        "ure"
      ],
      [
        "shif",
        "t"
      ],
      [
        "Ge",
        "orge"
      ],
      [
        "QUE",
        "EN"
      ],
      [
        "resi",
        "gn"
      ],
      [
        "mobil",
        "ity"
      ],
      [
        "advers",
        "ary"
      ],
      [
        "ATTAC",
        "K"
      ],
      [
        "CHAP",
        "TER"
      ],
      [
        "Petersbur",
        "g"
      ],
      [
        "!",
        "!"
      ],
      [
        ")",
        "."
      ],
      [
        "5",
        "4"
      ],
      [
        "B",
        "y"
      ],
      [
        "C",
        "I"
      ],
      [
        "C",
        "L"
      ],
      [
        "D",
        "D"
      ],
      [
        "E",
        "Z"
      ],
      [
        "F",
        "ENCE"
      ],
      [
        "G",
        "H"
      ],
      [
        "H",
        "ow"
      ],
      [
        "I",
        "GH"
      ],
      [
        "K",
        "N"
      ],
      [
        "L",
        "et"
      ],
      [
        "N",
        "ew"
      ],
      [
        "O",
        "K"
      ],
      [
        "P",
        "O"
      ],
      [
        "P",
        "lay"
      ],
      [
        "R",
        "U"
      ],
      [
        "S",
        "S"
      ],
      [
        "S",
        "T"
      ],
      [
        "S",
        "ince"
      ],
      [
        "U",
        "n"
      ],
      [
        "V",
        "er"
      ],
      [
        "W",
        "I"
      ],
      [
        "Y",
        "or"
      ],
      [
        "_",
        "The"
      ],
      [
        "_",
        "fix"
      ],
      [
        "c",
        "la"
      ],
      [
        "c",
        "ut"
      ],
      [
        "c",
        "reat"
      ],
      [
        "h",
        "ence"
      ],
      [
        "i",
        "p"
      ],
      [
        "i",
        "ld"
      ],
      [
        "i",
        "ar"
      ],
      [
        "l",
        "im"
      ],
      [
        "l",
        "od"
      ],
      [
        "n",
        "orm"
      ],
      [
        "o",
        "y"
      ],
      [
        "o",
        "om"
      ],
      [
        "p",
        "ion"
      ],
      [
        "r",
        "ing"
      ],
      [
        "r",
        "up"
      ],
      [
        "r",
        "oom"
      ],
      [
        "s",
        "ound"
      ],
      [
        "t",
        "ion"
      ],
      [
        "w",
        "ish"
      ],
      [
        "in",
        "f"
      ],
      [
        "in",
        "vari"
      ],
      [
        "is",
        "ing"
      ],
      [
        "re",
        "lat"
      ],
      [
        "it",
        "ut"
      ],
      [
        "en",
        "ough"
      ],
      [
        "ing",
        "ly"
      ],
      [
        "st",
        "a"
      ],
      [
        "ed",
        "ingly"
      ],
      [
        "de",
        "vo"
      ],
      [
        "wh",
        "ate"
      ],
      [
        "position",
        "al"
      ],
      [
        "ct",
        "ion"
      ],
      [
        "om",
        "in"
      ],
      [
        "with",
        "in"
      ],
      [
        "all",
        "ow"
      ],
      [
        "not",
        "e"
      ],
      [
        "not",
        "es"
      ],
      [
        "not",
        "ice"
      ],
      [
        "ut",
        "il"
      ],
      [
        "sh",
        "ip"
      ],
      [
        "we",
        "red"
      ],
      [
        "con",
        "cer"
      ],
      [
        "ti",
        "ed"
      ],
      [
        "advan",
        "ces"
      ],
      [
        "gain",
        "s"
      ],
      [
        "com",
        "ing"
      ],
      [
        "attack",
        "s"
      ],
      [
        "am",
        "ong"
      ],
      [
        "un",
        "question"
      ],
      [
        "19",
        "0"
      ],
      [
        "19",
        "14"
      ],
      [
        "tr",
        "ap"
      ],
      [
        "ur",
        "ing"
      ],
      [
        "te",
        "ach"
      ],
      [
        "some",
        "thing"
      ],
      [
        "fin",
        "ish"
      ],
      [
        "ext",
        "reme"
      ],
      [
        "weak",
        "er"
      ],
      [
        "par",
        "aly"
      ],
      [
        "par",
        "tic"
      ],
      [
        "when",
        "ever"
      ],
      [
        "Th",
        "at"
      ],
      [
        "ced",
        "ure"
      ],
      [
        "He",
        "re"
      ],
      [
        "ough",
        "ly"
      ],
      [
        "prevent",
        "s"
      ],
      [
        "prevent",
        "ing"
      ],
      [
        "pro",
        "cedure"
      ],
      [
        "ty",
        "p"
      ],
      [
        "begin",
        "ning"
      ],
      [
        "ans",
        "wered"
      ],
      [
        "bin",
        "ste"
      ],
      [
        "dis",
        "ast"
      ],
      [
        "dis",
        "lod"
      ],
      [
        "dis",
        "rup"
      ],
      [
        "opposition",
        "_"
      ],
      [
        "wor",
        "se"
      ],
      [
        "exce",
        "edingly"
      ],
      [
        "under",
        "stand"
      ],
      [
        "val",
        "u"
      ],
      [
        "hand",
        "ling"
      ],
      [
        "lea",
        "ving"
      ],
      [
        "off",
        "er"
      ],
      [
        "mak",
        "ing"
      ],
      [
        "contin",
        "uation"
      ],
      [
        "contr",
        "o"
      ],
      [
        "real",
        "ise"
      ],
      [
        "suc",
        "ceed"
      ],
      [
        "ING",
        "S"
      ],
      [
        "mast",
        "ers"
      ],
      [
        "feren",
        "ce"
      ],
      [
        "matter",
        "s"
      ],
      [
        "demon",
        "str"
      ],
      [
        "break",
        "ing"
      ],
      [
        "RO",
        "M"
      ],
      [
        "RO",
        "OK"
      ],
      [
        "sing",
        "le"
      ],
      [
        "sol",
        "ut"
      ],
      [
        "DE",
        "FENCE"
      ],
      [
        "mar",
        "ch"
      ],
      [
        "prepare",
        "d"
      ],
      [
        "gr",
        "ad"
      ],
      [
        "dec",
        "ided"
      ],
      [
        "Ru",
        "binste"
      ],
      [
        "hi",
        "gh"
      ],
      [
        "min",
        "us"
      ],
      [
        "expect",
        "ed"
      ],
      [
        "continu",
        "es"
      ],
      [
        "PAWN",
        "S"
      ],
      [
        "pur",
        "poses"
      ],
      [
        "sl",
        "ight"
      ],
      [
        "avo",
        "id"
      ],
      [
        "thor",
        "oughly"
      ],
      [
        "compe",
        "lled"
      ],
      [
        "respect",
        "ively"
      ],
      [
        "fortun",
        "ately"
      ],
      [
        "IV",
        "E"
      ],
      [
        "LOP",
        "EZ"
      ],
      [
        "wa",
        "it"
      ],
      [
        "origin",
        "al"
      ],
      [
        "const",
        "itut"
      ],
      [
        "ulti",
        "mate"
      ],
      [
        "How",
        "ever"
      ],
      [
        "IGH",
        "T"
      ],
      [
        "KN",
        "IGHT"
      ],
      [
        "Play",
        "ed"
      ],
      [
        "RU",
        "Y"
      ],
      [
        "Ver",
        "y"
      ],
      [
        "Yor",
        "k"
      ],
      [
        "norm",
        "al"
      ],
      [
        "invari",
        "ably"
      ],
      [
        "whate",
        "ver"
      ],
      [
        "partic",
        "ular"
      ],
      [
        "Rubinste",
        "in"
      ],
      [
        "*",
        "/"
      ],
      [
        ".",
        ":"
      ],
      [
        "/",
        "*"
      ],
      [
        "5",
        "5"
      ],
      [
        "5",
        "8"
      ],
      [
        "5",
        "9"
      ],
      [
        "6",
        "0"
      ],
      [
        "A",
        "le"
      ],
      [
        "B",
        "IT"
      ],
      [
        "C",
        "om"
      ],
      [
        "D",
        "I"
      ],
      [
        "G",
        "am"
      ],
      [
        "I",
        "I"
      ],
      [
        "I",
        "S"
      ],
      [
        "I",
        "DD"
      ],
      [
        "L",
        "A"
      ],
      [
        "L",
        "ope"
      ],
      [
        "M",
        "E"
      ],
      [
        "M",
        "y"
      ],
      [
        "M",
        "ast"
      ],
      [
        "M",
        "IDD"
      ],
      [
        "O",
        "ME"
      ],
      [
        "S",
        "OME"
      ],
      [
        "U",
        "T"
      ],
      [
        "W",
        "he"
      ],
      [
        "_",
        "a"
      ],
      [
        "a",
        "id"
      ],
      [
        "a",
        "int"
      ],
      [
        "b",
        "u"
      ],
      [
        "b",
        "as"
      ],
      [
        "c",
        "ou"
      ],
      [
        "c",
        "ul"
      ],
      [
        "c",
        "us"
      ],
      [
        "c",
        "ident"
      ],
      [
        "d",
        "omin"
      ],
      [
        "d",
        "uring"
      ],
      [
        "f",
        "if"
      ],
      [
        "f",
        "am"
      ],
      [
        "f",
        "ast"
      ],
      [
        "g",
        "u"
      ],
      [
        "g",
        "es"
      ],
      [
        "g",
        "one"
      ],
      [
        "g",
        "ical"
      ],
      [
        "i",
        "an"
      ],
      [
        "i",
        "la"
      ],
      [
        "j",
        "es"
      ],
      [
        "j",
        "ust"
      ],
      [
        "j",
        "un"
      ],
      [
        "l",
        "o"
      ],
      [
        "m",
        "it"
      ],
      [
        "m",
        "er"
      ],
      [
        "n",
        "s"
      ],
      [
        "o",
        "re"
      ],
      [
        "r",
        "ate"
      ],
      [
        "s",
        "ion"
      ],
      [
        "s",
        "erve"
      ],
      [
        "u",
        "res"
      ],
      [
        "v",
        "ie"
      ],
      [
        "w",
        "ing"
      ],
      [
        "w",
        "ent"
      ],
      [
        "th",
        "ir"
      ],
      [
        "in",
        "v"
      ],
      [
        "the",
        "ory"
      ],
      [
        "re",
        "pl"
      ],
      [
        "re",
        "ally"
      ],
      [
        "to",
        "ry"
      ],
      [
        "to",
        "wards"
      ],
      [
        "ve",
        "s"
      ],
      [
        "st",
        "ate"
      ],
      [
        "st",
        "ance"
      ],
      [
        "la",
        "id"
      ],
      [
        "ll",
        "ing"
      ],
      [
        "ch",
        "i"
      ],
      [
        "ch",
        "o"
      ],
      [
        "ch",
        "ess"
      ],
      [
        "de",
        "ci"
      ],
      [
        "se",
        "t"
      ],
      [
        "ad",
        "d"
      ],
      [
        "ar",
        "s"
      ],
      [
        "ar",
        "ly"
      ],
      [
        "si",
        "x"
      ],
      [
        "ation",
        "al"
      ],
      [
        "The",
        "y"
      ],
      [
        "ver",
        "t"
      ],
      [
        "ish",
        "ed"
      ],
      [
        "con",
        "ven"
      ],
      [
        "con",
        "jun"
      ],
      [
        "if",
        "ul"
      ],
      [
        "if",
        "ied"
      ],
      [
        "ti",
        "e"
      ],
      [
        "end",
        "s"
      ],
      [
        "ic",
        "ation"
      ],
      [
        "gain",
        "ed"
      ],
      [
        "com",
        "par"
      ],
      [
        "ive",
        "d"
      ],
      [
        "pre",
        "ference"
      ],
      [
        "qu",
        "aint"
      ],
      [
        "pl",
        "ess"
      ],
      [
        "attack",
        "ed"
      ],
      [
        "sa",
        "ve"
      ],
      [
        "In",
        "cident"
      ],
      [
        "ul",
        "ty"
      ],
      [
        "advantage",
        "ous"
      ],
      [
        "any",
        "thing"
      ],
      [
        "ment",
        "s"
      ],
      [
        "ment",
        "ary"
      ],
      [
        "ap",
        "pe"
      ],
      [
        "ac",
        "quaint"
      ],
      [
        "los",
        "ing"
      ],
      [
        "ci",
        "ally"
      ],
      [
        "il",
        "iar"
      ],
      [
        "back",
        "ward"
      ],
      [
        "IN",
        "ED"
      ],
      [
        "difficul",
        "ty"
      ],
      [
        "ind",
        "icated"
      ],
      [
        "res",
        "is"
      ],
      [
        "ne",
        "w"
      ],
      [
        "ne",
        "ed"
      ],
      [
        "ne",
        "are"
      ],
      [
        "man",
        "ner"
      ],
      [
        "acc",
        "ur"
      ],
      [
        "po",
        "or"
      ],
      [
        "ren",
        "ch"
      ],
      [
        "ag",
        "ree"
      ],
      [
        "GAM",
        "BIT"
      ],
      [
        "quick",
        "est"
      ],
      [
        "lin",
        "es"
      ],
      [
        "form",
        "s"
      ],
      [
        "later",
        "al"
      ],
      [
        "dou",
        "ble"
      ],
      [
        "cond",
        "uct"
      ],
      [
        "ho",
        "me"
      ],
      [
        "dem",
        "and"
      ],
      [
        "over",
        "look"
      ],
      [
        "compl",
        "ic"
      ],
      [
        "compl",
        "icated"
      ],
      [
        "danger",
        "ous"
      ],
      [
        "know",
        "n"
      ],
      [
        "know",
        "led"
      ],
      [
        "AT",
        "E"
      ],
      [
        "AT",
        "IVE"
      ],
      [
        "ran",
        "ge"
      ],
      [
        "too",
        "k"
      ],
      [
        "comm",
        "on"
      ],
      [
        "fa",
        "ulty"
      ],
      [
        "hel",
        "pless"
      ],
      [
        "superior",
        "ity"
      ],
      [
        "expla",
        "in"
      ],
      [
        "consis",
        "t"
      ],
      [
        "consis",
        "ts"
      ],
      [
        "resul",
        "ts"
      ],
      [
        "accomplish",
        "es"
      ],
      [
        "DE",
        "CL"
      ],
      [
        "hold",
        "s"
      ],
      [
        "success",
        "ful"
      ],
      [
        "assu",
        "me"
      ],
      [
        "lead",
        "s"
      ],
      [
        "hap",
        "pen"
      ],
      [
        "Ru",
        "y"
      ],
      [
        "every",
        "thing"
      ],
      [
        "continu",
        "ed"
      ],
      [
        "hope",
        "less"
      ],
      [
        "exer",
        "c"
      ],
      [
        "appl",
        "ied"
      ],
      [
        "appl",
        "ication"
      ],
      [
        "condition",
        "s"
      ],
      [
        "Al",
        "so"
      ],
      [
        "Cha",
        "jes"
      ],
      [
        "ene",
        "my"
      ],
      [
        "prefer",
        "able"
      ],
      [
        "dri",
        "ven"
      ],
      [
        "drive",
        "s"
      ],
      [
        "ele",
        "mentary"
      ],
      [
        "beaut",
        "iful"
      ],
      [
        "capt",
        "ure"
      ],
      [
        "doubl",
        "ed"
      ],
      [
        "stopp",
        "ed"
      ],
      [
        "WI",
        "TH"
      ],
      [
        "lim",
        "it"
      ],
      [
        "pion",
        "ship"
      ],
      [
        "inf",
        "lu"
      ],
      [
        "relat",
        "ive"
      ],
      [
        "sta",
        "le"
      ],
      [
        "devo",
        "te"
      ],
      [
        "util",
        "ise"
      ],
      [
        "unquestion",
        "ably"
      ],
      [
        "extreme",
        "ly"
      ],
      [
        "dislod",
        "ge"
      ],
      [
        "valu",
        "able"
      ],
      [
        "contro",
        "lling"
      ],
      [
        "demonstr",
        "ates"
      ],
      [
        "solut",
        "e"
      ],
      [
        "grad",
        "ually"
      ],
      [
        "high",
        "ly"
      ],
      [
        "constitut",
        "es"
      ],
      [
        "Gam",
        "bit"
      ],
      [
        "IS",
        "H"
      ],
      [
        "Lope",
        "z"
      ],
      [
        "Mast",
        "ers"
      ],
      [
        "MIDD",
        "LE"
      ],
      [
        "Whe",
        "ther"
      ],
      [
        "bu",
        "ild"
      ],
      [
        "fam",
        "iliar"
      ],
      [
        "ila",
        "ble"
      ],
      [
        "lo",
        "gical"
      ],
      [
        "ore",
        "tic"
      ],
      [
        "vie",
        "w"
      ],
      [
        "deci",
        "de"
      ],
      [
        "conven",
        "ient"
      ],
      [
        "conjun",
        "ction"
      ],
      [
        "Incident",
        "ally"
      ],
      [
        "knowled",
        "ge"
      ],
      [
        "DECL",
        "INED"
      ],
      [
        ".",
        ","
      ],
      [
        "6",
        "1"
      ],
      [
        "A",
        "ll"
      ],
      [
        "A",
        "no"
      ],
      [
        "B",
        "ISH"
      ],
      [
        "C",
        "h"
      ],
      [
        "D",
        "ef"
      ],
      [
        "E",
        "v"
      ],
      [
        "F",
        "F"
      ],
      [
        "F",
        "R"
      ],
      [
        "F",
        "U"
      ],
      [
        "F",
        "ROM"
      ],
      [
        "F",
        "rench"
      ],
      [
        "H",
        "O"
      ],
      [
        "I",
        "R"
      ],
      [
        "K",
        "up"
      ],
      [
        "M",
        "e"
      ],
      [
        "M",
        "r"
      ],
      [
        "M",
        "or"
      ],
      [
        "N",
        "or"
      ],
      [
        "N",
        "ie"
      ],
      [
        "N",
        "ING"
      ],
      [
        "O",
        "R"
      ],
      [
        "O",
        "ne"
      ],
      [
        "O",
        "UT"
      ],
      [
        "P",
        "R"
      ],
      [
        "P",
        "r"
      ],
      [
        "P",
        "re"
      ],
      [
        "P",
        "LA"
      ],
      [
        "S",
        "h"
      ],
      [
        "S",
        "an"
      ],
      [
        "S",
        "ITI"
      ],
      [
        "T",
        "O"
      ],
      [
        "T",
        "aking"
      ],
      [
        "W",
        "IN"
      ],
      [
        "Y",
        "et"
      ],
      [
        "b",
        "at"
      ],
      [
        "b",
        "en"
      ],
      [
        "b",
        "or"
      ],
      [
        "b",
        "ast"
      ],
      [
        "d",
        "ing"
      ],
      [
        "d",
        "ay"
      ],
      [
        "f",
        "at"
      ],
      [
        "f",
        "ac"
      ],
      [
        "f",
        "ers"
      ],
      [
        "g",
        "ing"
      ],
      [
        "h",
        "in"
      ],
      [
        "i",
        "le"
      ],
      [
        "i",
        "ct"
      ],
      [
        "i",
        "llust"
      ],
      [
        "i",
        "llustration"
      ],
      [
        "i",
        "ble"
      ],
      [
        "k",
        "ward"
      ],
      [
        "k",
        "new"
      ],
      [
        "l",
        "es"
      ],
      [
        "l",
        "ow"
      ],
      [
        "l",
        "ies"
      ],
      [
        "m",
        "z"
      ],
      [
        "m",
        "as"
      ],
      [
        "m",
        "pionship"
      ],
      [
        "n",
        "or"
      ],
      [
        "n",
        "ers"
      ],
      [
        "o",
        "ld"
      ],
      [
        "p",
        "ay"
      ],
      [
        "p",
        "ts"
      ],
      [
        "p",
        "ure"
      ],
      [
        "p",
        "age"
      ],
      [
        "r",
        "or"
      ],
      [
        "s",
        "p"
      ],
      [
        "s",
        "ort"
      ],
      [
        "t",
        "ual"
      ],
      [
        "u",
        "ce"
      ],
      [
        "u",
        "su"
      ],
      [
        "in",
        "ion"
      ],
      [
        "in",
        "ts"
      ],
      [
        "in",
        "directly"
      ],
      [
        "in",
        "stance"
      ],
      [
        "the",
        "oretic"
      ],
      [
        "an",
        "ti"
      ],
      [
        "an",
        "while"
      ],
      [
        "at",
        "ory"
      ],
      [
        "re",
        "g"
      ],
      [
        "re",
        "take"
      ],
      [
        "re",
        "lin"
      ],
      [
        "re",
        "turn"
      ],
      [
        "re",
        "vert"
      ],
      [
        "it",
        "ch"
      ],
      [
        "st",
        "res"
      ],
      [
        "st",
        "art"
      ],
      [
        "be",
        "low"
      ],
      [
        "ch",
        "in"
      ],
      [
        "er",
        "ror"
      ],
      [
        "and",
        "er"
      ],
      [
        "as",
        "sa"
      ],
      [
        "ion",
        "s"
      ],
      [
        "es",
        "ca"
      ],
      [
        "es",
        "pe"
      ],
      [
        "ed",
        "ge"
      ],
      [
        "he",
        "ld"
      ],
      [
        "Wh",
        "ile"
      ],
      [
        "me",
        "t"
      ],
      [
        "me",
        "re"
      ],
      [
        "me",
        "anwhile"
      ],
      [
        "op",
        "tion"
      ],
      [
        "op",
        "inion"
      ],
      [
        "aw",
        "kward"
      ],
      [
        "de",
        "ter"
      ],
      [
        "ent",
        "er"
      ],
      [
        "pos",
        "al"
      ],
      [
        "pla",
        "cing"
      ],
      [
        "ga",
        "ve"
      ],
      [
        "ar",
        "ound"
      ],
      [
        "wh",
        "ite"
      ],
      [
        "for",
        "ward"
      ],
      [
        "si",
        "ght"
      ],
      [
        "ex",
        "tra"
      ],
      [
        "fo",
        "ld"
      ],
      [
        "ge",
        "st"
      ],
      [
        "con",
        "c"
      ],
      [
        "con",
        "ce"
      ],
      [
        "con",
        "fin"
      ],
      [
        "con",
        "cent"
      ],
      [
        "con",
        "dem"
      ],
      [
        "ab",
        "il"
      ],
      [
        "ab",
        "solute"
      ],
      [
        "ke",
        "y"
      ],
      [
        "ic",
        "s"
      ],
      [
        "ic",
        "ing"
      ],
      [
        "ic",
        "tory"
      ],
      [
        "im",
        "in"
      ],
      [
        "im",
        "pres"
      ],
      [
        "im",
        "prove"
      ],
      [
        "ca",
        "me"
      ],
      [
        "com",
        "pare"
      ],
      [
        "pre",
        "par"
      ],
      [
        "pre",
        "fers"
      ],
      [
        "our",
        "ces"
      ],
      [
        "qu",
        "ish"
      ],
      [
        "pl",
        "oy"
      ],
      [
        "der",
        "ive"
      ],
      [
        "am",
        "ount"
      ],
      [
        "un",
        "it"
      ],
      [
        "un",
        "developed"
      ],
      [
        "beca",
        "me"
      ],
      [
        "In",
        "tern"
      ],
      [
        "chan",
        "ge"
      ],
      [
        "19",
        "18"
      ],
      [
        "tr",
        "ans"
      ],
      [
        "tr",
        "ied"
      ],
      [
        "co",
        "ver"
      ],
      [
        "br",
        "ill"
      ],
      [
        "sim",
        "pl"
      ],
      [
        "pe",
        "tual"
      ],
      [
        "weak",
        "ening"
      ],
      [
        "par",
        "ts"
      ],
      [
        "draw",
        "back"
      ],
      [
        "go",
        "ver"
      ],
      [
        "str",
        "uct"
      ],
      [
        "str",
        "ict"
      ],
      [
        "ci",
        "p"
      ],
      [
        "obtain",
        "s"
      ],
      [
        "prevent",
        "ed"
      ],
      [
        "exchan",
        "ges"
      ],
      [
        "pro",
        "of"
      ],
      [
        "IN",
        "CI"
      ],
      [
        "plan",
        "s"
      ],
      [
        "EN",
        "CH"
      ],
      [
        "eas",
        "e"
      ],
      [
        "ative",
        "ly"
      ],
      [
        "res",
        "ources"
      ],
      [
        "ne",
        "arly"
      ],
      [
        "keep",
        "s"
      ],
      [
        "see",
        "med"
      ],
      [
        "dis",
        "cus"
      ],
      [
        "dis",
        "posal"
      ],
      [
        "thr",
        "ow"
      ],
      [
        "po",
        "ints"
      ],
      [
        "ag",
        "es"
      ],
      [
        "ant",
        "ed"
      ],
      [
        "soon",
        "er"
      ],
      [
        "combin",
        "ed"
      ],
      [
        "ident",
        "ly"
      ],
      [
        "defend",
        "s"
      ],
      [
        "defend",
        "ed"
      ],
      [
        "reason",
        "ing"
      ],
      [
        "sto",
        "od"
      ],
      [
        "under",
        "stood"
      ],
      [
        "object",
        "ion"
      ],
      [
        "manoeuv",
        "ring"
      ],
      [
        "front",
        "al"
      ],
      [
        "main",
        "ly"
      ],
      [
        "ev",
        "ent"
      ],
      [
        "per",
        "petual"
      ],
      [
        "bl",
        "under"
      ],
      [
        "free",
        "ly"
      ],
      [
        "od",
        "d"
      ],
      [
        "off",
        "ers"
      ],
      [
        "off",
        "ensive"
      ],
      [
        "combination",
        "s"
      ],
      [
        "ef",
        "it"
      ],
      [
        "mis",
        "takes"
      ],
      [
        "mis",
        "ses"
      ],
      [
        "ound",
        "ed"
      ],
      [
        "immedi",
        "ate"
      ],
      [
        "comple",
        "ted"
      ],
      [
        "evident",
        "ly"
      ],
      [
        "num",
        "er"
      ],
      [
        "real",
        "ised"
      ],
      [
        "Cast",
        "ling"
      ],
      [
        "Cast",
        "led"
      ],
      [
        "stand",
        "ard"
      ],
      [
        "necess",
        "ity"
      ],
      [
        "Again",
        "st"
      ],
      [
        "OP",
        "EN"
      ],
      [
        "exp",
        "ounded"
      ],
      [
        "except",
        "ion"
      ],
      [
        "doubt",
        "ful"
      ],
      [
        "sacrif",
        "icing"
      ],
      [
        "put",
        "s"
      ],
      [
        "cur",
        "ious"
      ],
      [
        "gr",
        "anted"
      ],
      [
        "oc",
        "cas"
      ],
      [
        "analy",
        "se"
      ],
      [
        "analy",
        "sed"
      ],
      [
        "analy",
        "sis"
      ],
      [
        "hap",
        "s"
      ],
      [
        "hap",
        "pens"
      ],
      [
        "possibil",
        "ity"
      ],
      [
        "think",
        "ing"
      ],
      [
        "Ha",
        "ving"
      ],
      [
        "RE",
        "L"
      ],
      [
        "attem",
        "pts"
      ],
      [
        "sub",
        "ject"
      ],
      [
        "support",
        "ed"
      ],
      [
        "sl",
        "ow"
      ],
      [
        "spe",
        "ak"
      ],
      [
        "reme",
        "m"
      ],
      [
        "exer",
        "ts"
      ],
      [
        "weaken",
        "ed"
      ],
      [
        "proceed",
        "ing"
      ],
      [
        "avo",
        "ided"
      ],
      [
        "command",
        "ing"
      ],
      [
        "Cha",
        "mpionship"
      ],
      [
        "clear",
        "ly"
      ],
      [
        "found",
        "ation"
      ],
      [
        "hard",
        "ly"
      ],
      [
        "pin",
        "ned"
      ],
      [
        "requi",
        "red"
      ],
      [
        "requi",
        "res"
      ],
      [
        "feat",
        "ures"
      ],
      [
        "dri",
        "ving"
      ],
      [
        "END",
        "INGS"
      ],
      [
        "ordin",
        "ation"
      ],
      [
        "fail",
        "ing"
      ],
      [
        "Se",
        "bast"
      ],
      [
        "tact",
        "ics"
      ],
      [
        "tra",
        "in"
      ],
      [
        "ava",
        "il"
      ],
      [
        "ava",
        "ilable"
      ],
      [
        "PO",
        "SITI"
      ],
      [
        "cla",
        "s"
      ],
      [
        "creat",
        "ed"
      ],
      [
        "trap",
        "s"
      ],
      [
        "teach",
        "er"
      ],
      [
        "typ",
        "ical"
      ],
      [
        "disast",
        "er"
      ],
      [
        "offer",
        "ing"
      ],
      [
        "wait",
        "ing"
      ],
      [
        "ultimate",
        "ly"
      ],
      [
        "Com",
        "pare"
      ],
      [
        "fif",
        "ty"
      ],
      [
        "thir",
        "d"
      ],
      [
        "inv",
        "ol"
      ],
      [
        "repl",
        "ies"
      ],
      [
        "chi",
        "ck"
      ],
      [
        "cho",
        "ice"
      ],
      [
        "resis",
        "t"
      ],
      [
        "neare",
        "r"
      ],
      [
        "complic",
        "ations"
      ],
      [
        "happen",
        "ed"
      ],
      [
        "influ",
        "ence"
      ],
      [
        "Ano",
        "ther"
      ],
      [
        "BISH",
        "OP"
      ],
      [
        "Ch",
        "ess"
      ],
      [
        "Def",
        "ence"
      ],
      [
        "Ev",
        "idently"
      ],
      [
        "FR",
        "ENCH"
      ],
      [
        "Kup",
        "chick"
      ],
      [
        "Nie",
        "mz"
      ],
      [
        "PR",
        "INCI"
      ],
      [
        "Pre",
        "par"
      ],
      [
        "PLA",
        "Y"
      ],
      [
        "Sh",
        "ould"
      ],
      [
        "bat",
        "tle"
      ],
      [
        "ben",
        "efit"
      ],
      [
        "fat",
        "al"
      ],
      [
        "pure",
        "ly"
      ],
      [
        "usu",
        "al"
      ],
      [
        "anti",
        "cip"
      ],
      [
        "relin",
        "quish"
      ],
      [
        "stres",
        "s"
      ],
      [
        "esca",
        "pe"
      ],
      [
        "espe",
        "cially"
      ],
      [
        "Intern",
        "ational"
      ],
      [
        "Sebast",
        "ian"
      ],
      [
        "POSITI",
        "ON"
      ],
      [
        "PRINCI",
        "PLE"
      ],
      [
        "!",
        ";"
      ],
      [
        ",",
        "\""
      ],
      [
        ",",
        "["
      ],
      [
        "6",
        "2"
      ],
      [
        "6",
        "3"
      ],
      [
        "6",
        "4"
      ],
      [
        "6",
        "5"
      ],
      [
        "6",
        "6"
      ],
      [
        "6",
        "7"
      ],
      [
        "8",
        "1"
      ],
      [
        ":",
        "--"
      ],
      [
        "A",
        "p"
      ],
      [
        "A",
        "IN"
      ],
      [
        "A",
        "SS"
      ],
      [
        "B",
        "er"
      ],
      [
        "B",
        "ur"
      ],
      [
        "B",
        "lan"
      ],
      [
        "B",
        "old"
      ],
      [
        "C",
        "T"
      ],
      [
        "C",
        "on"
      ],
      [
        "C",
        "lu"
      ],
      [
        "C",
        "ENT"
      ],
      [
        "D",
        "e"
      ],
      [
        "E",
        "n"
      ],
      [
        "E",
        "CE"
      ],
      [
        "F",
        "in"
      ],
      [
        "F",
        "irst"
      ],
      [
        "F",
        "IR"
      ],
      [
        "F",
        "OR"
      ],
      [
        "G",
        "Y"
      ],
      [
        "G",
        "ener"
      ],
      [
        "G",
        "EN"
      ],
      [
        "G",
        "et"
      ],
      [
        "H",
        "ast"
      ],
      [
        "H",
        "ence"
      ],
      [
        "I",
        "C"
      ],
      [
        "I",
        "ON"
      ],
      [
        "I",
        "ECE"
      ],
      [
        "K",
        "2"
      ],
      [
        "K",
        "ost"
      ],
      [
        "M",
        "at"
      ],
      [
        "M",
        "is"
      ],
      [
        "M",
        "any"
      ],
      [
        "M",
        "ies"
      ],
      [
        "M",
        "ATE"
      ],
      [
        "O",
        "T"
      ],
      [
        "O",
        "ther"
      ],
      [
        "P",
        "E"
      ],
      [
        "P",
        "er"
      ],
      [
        "P",
        "ar"
      ],
      [
        "P",
        "ROM"
      ],
      [
        "P",
        "IECE"
      ],
      [
        "Q",
        "3"
      ],
      [
        "R",
        "T"
      ],
      [
        "R",
        "THE"
      ],
      [
        "R",
        "ATE"
      ],
      [
        "S",
        "I"
      ],
      [
        "S",
        "o"
      ],
      [
        "S",
        "up"
      ],
      [
        "T",
        "a"
      ],
      [
        "T",
        "wo"
      ],
      [
        "T",
        "RO"
      ],
      [
        "V",
        "AL"
      ],
      [
        "W",
        "inter"
      ],
      [
        "_",
        "b"
      ],
      [
        "_",
        "keep"
      ],
      [
        "_",
        "via"
      ],
      [
        "_",
        "When"
      ],
      [
        "a",
        "f"
      ],
      [
        "a",
        "u"
      ],
      [
        "a",
        "in"
      ],
      [
        "a",
        "ight"
      ],
      [
        "a",
        "fr"
      ],
      [
        "a",
        "il"
      ],
      [
        "b",
        "ly"
      ],
      [
        "b",
        "al"
      ],
      [
        "c",
        "al"
      ],
      [
        "c",
        "red"
      ],
      [
        "c",
        "lin"
      ],
      [
        "d",
        "d"
      ],
      [
        "d",
        "ed"
      ],
      [
        "d",
        "well"
      ],
      [
        "d",
        "imin"
      ],
      [
        "e",
        "qu"
      ],
      [
        "e",
        "ts"
      ],
      [
        "e",
        "cut"
      ],
      [
        "f",
        "all"
      ],
      [
        "f",
        "ut"
      ],
      [
        "f",
        "il"
      ],
      [
        "g",
        "or"
      ],
      [
        "g",
        "reate"
      ],
      [
        "h",
        "y"
      ],
      [
        "h",
        "op"
      ],
      [
        "h",
        "ar"
      ],
      [
        "i",
        "g"
      ],
      [
        "i",
        "ly"
      ],
      [
        "i",
        "ces"
      ],
      [
        "i",
        "ant"
      ],
      [
        "i",
        "fold"
      ],
      [
        "j",
        "or"
      ],
      [
        "k",
        "en"
      ],
      [
        "l",
        "ation"
      ],
      [
        "l",
        "ight"
      ],
      [
        "l",
        "ate"
      ],
      [
        "l",
        "ming"
      ],
      [
        "m",
        "ined"
      ],
      [
        "n",
        "one"
      ],
      [
        "o",
        "t"
      ],
      [
        "o",
        "v"
      ],
      [
        "o",
        "ken"
      ],
      [
        "p",
        "i"
      ],
      [
        "p",
        "ages"
      ],
      [
        "p",
        "hy"
      ],
      [
        "r",
        "m"
      ],
      [
        "r",
        "is"
      ],
      [
        "r",
        "ul"
      ],
      [
        "r",
        "ous"
      ],
      [
        "r",
        "ap"
      ],
      [
        "r",
        "ated"
      ],
      [
        "s",
        "c"
      ],
      [
        "s",
        "er"
      ],
      [
        "s",
        "our"
      ],
      [
        "t",
        "it"
      ],
      [
        "t",
        "es"
      ],
      [
        "t",
        "wi"
      ],
      [
        "t",
        "al"
      ],
      [
        "t",
        "ant"
      ],
      [
        "t",
        "ends"
      ],
      [
        "u",
        "ght"
      ],
      [
        "u",
        "red"
      ],
      [
        "v",
        "ided"
      ],
      [
        "v",
        "ictory"
      ],
      [
        "x",
        "im"
      ],
      [
        "x",
        "ander"
      ],
      [
        "z",
        "e"
      ],
      [
        "in",
        "act"
      ],
      [
        "in",
        "tr"
      ],
      [
        "in",
        "tact"
      ],
      [
        "an",
        "ced"
      ],
      [
        "on",
        "s"
      ],
      [
        "on",
        "ing"
      ],
      [
        "on",
        "wards"
      ],
      [
        "on",
        "gest"
      ],
      [
        "is",
        "es"
      ],
      [
        "is",
        "ts"
      ],
      [
        "is",
        "ol"
      ],
      [
        "is",
        "ted"
      ],
      [
        "re",
        "la"
      ],
      [
        "re",
        "ti"
      ],
      [
        "re",
        "lie"
      ],
      [
        "re",
        "cover"
      ],
      [
        "re",
        "strict"
      ],
      [
        "re",
        "lation"
      ],
      [
        "it",
        "ic"
      ],
      [
        "it",
        "ten"
      ],
      [
        "en",
        "ly"
      ],
      [
        "en",
        "su"
      ],
      [
        "en",
        "ces"
      ],
      [
        "en",
        "ced"
      ],
      [
        "ing",
        "s"
      ],
      [
        "st",
        "ar"
      ],
      [
        "la",
        "bor"
      ],
      [
        "be",
        "coming"
      ],
      [
        "ch",
        "n"
      ],
      [
        "ch",
        "ar"
      ],
      [
        "ch",
        "am"
      ],
      [
        "and",
        "oning"
      ],
      [
        "as",
        "sing"
      ],
      [
        "es",
        "_"
      ],
      [
        "es",
        "se"
      ],
      [
        "ed",
        "_"
      ],
      [
        "ow",
        "itch"
      ],
      [
        "os",
        "en"
      ],
      [
        "le",
        "m"
      ],
      [
        "op",
        "ted"
      ],
      [
        "aw",
        "ak"
      ],
      [
        "de",
        "ed"
      ],
      [
        "de",
        "str"
      ],
      [
        "de",
        "feat"
      ],
      [
        "de",
        "ploy"
      ],
      [
        "ent",
        "ion"
      ],
      [
        "ent",
        "ed"
      ],
      [
        "ent",
        "ers"
      ],
      [
        "ent",
        "ry"
      ],
      [
        "pos",
        "ing"
      ],
      [
        "pos",
        "ed"
      ],
      [
        "al",
        "one"
      ],
      [
        "al",
        "most"
      ],
      [
        "se",
        "par"
      ],
      [
        "ga",
        "r"
      ],
      [
        "ad",
        "opted"
      ],
      [
        "ar",
        "ise"
      ],
      [
        "ar",
        "ising"
      ],
      [
        "for",
        "ts"
      ],
      [
        "ha",
        "m"
      ],
      [
        "ct",
        "ed"
      ],
      [
        "with",
        "stand"
      ],
      [
        "ex",
        "ecut"
      ],
      [
        "ex",
        "posed"
      ],
      [
        "are",
        "d"
      ],
      [
        "not",
        "ic"
      ],
      [
        "ut",
        "ions"
      ],
      [
        "which",
        "ever"
      ],
      [
        "ge",
        "ts"
      ],
      [
        "sh",
        "ut"
      ],
      [
        "su",
        "ic"
      ],
      [
        "su",
        "dd"
      ],
      [
        "pr",
        "of"
      ],
      [
        "pr",
        "om"
      ],
      [
        "con",
        "f"
      ],
      [
        "con",
        "solid"
      ],
      [
        "ti",
        "ble"
      ],
      [
        "ab",
        "andoning"
      ],
      [
        "ate",
        "ur"
      ],
      [
        "ic",
        "ate"
      ],
      [
        "im",
        "ent"
      ],
      [
        "ca",
        "utions"
      ],
      [
        "act",
        "s"
      ],
      [
        "act",
        "er"
      ],
      [
        "com",
        "ments"
      ],
      [
        "ive",
        "s"
      ],
      [
        "pre",
        "t"
      ],
      [
        "pre",
        "ci"
      ],
      [
        "pre",
        "cautions"
      ],
      [
        "id",
        "ing"
      ],
      [
        "qu",
        "ite"
      ],
      [
        "pl",
        "ed"
      ],
      [
        "ma",
        "jor"
      ],
      [
        "ma",
        "xim"
      ],
      [
        "sa",
        "fer"
      ],
      [
        "Queen",
        "ing"
      ],
      [
        "reat",
        "ening"
      ],
      [
        "out",
        "side"
      ],
      [
        "am",
        "p"
      ],
      [
        "am",
        "oun"
      ],
      [
        "am",
        "ples"
      ],
      [
        "am",
        "ateur"
      ],
      [
        "fr",
        "ay"
      ],
      [
        "un",
        "able"
      ],
      [
        "un",
        "ten"
      ],
      [
        "un",
        "like"
      ],
      [
        "un",
        "necessary"
      ],
      [
        "un",
        "sound"
      ],
      [
        "un",
        "usual"
      ],
      [
        "fe",
        "ar"
      ],
      [
        "fe",
        "el"
      ],
      [
        "use",
        "less"
      ],
      [
        "In",
        "stead"
      ],
      [
        "ob",
        "vi"
      ],
      [
        "ob",
        "ably"
      ],
      [
        "chan",
        "ged"
      ],
      [
        "chan",
        "ging"
      ],
      [
        "19",
        "7"
      ],
      [
        "19",
        "19"
      ],
      [
        "19",
        "10"
      ],
      [
        "19",
        "11"
      ],
      [
        "ul",
        "t"
      ],
      [
        "up",
        "on"
      ],
      [
        "other",
        "s"
      ],
      [
        "ir",
        "re"
      ],
      [
        "def",
        "ences"
      ],
      [
        "us",
        "ing"
      ],
      [
        "us",
        "ed"
      ],
      [
        "threat",
        "s"
      ],
      [
        "tr",
        "u"
      ],
      [
        "any",
        "where"
      ],
      [
        "te",
        "chn"
      ],
      [
        "develop",
        "s"
      ],
      [
        "co",
        "st"
      ],
      [
        "some",
        "where"
      ],
      [
        "fin",
        "al"
      ],
      [
        "fin",
        "esse"
      ],
      [
        "br",
        "ack"
      ],
      [
        "br",
        "oken"
      ],
      [
        "12",
        "2"
      ],
      [
        "ap",
        "ply"
      ],
      [
        "ap",
        "art"
      ],
      [
        "ap",
        "preci"
      ],
      [
        "par",
        "amount"
      ],
      [
        "Th",
        "ough"
      ],
      [
        "Th",
        "reatening"
      ],
      [
        "mat",
        "ch"
      ],
      [
        "mat",
        "ed"
      ],
      [
        "square",
        "d"
      ],
      [
        "vari",
        "es"
      ],
      [
        "str",
        "aight"
      ],
      [
        "str",
        "ongest"
      ],
      [
        "str",
        "ives"
      ],
      [
        "cour",
        "ses"
      ],
      [
        "di",
        "vided"
      ],
      [
        "lat",
        "ter"
      ],
      [
        "il",
        "it"
      ],
      [
        "possi",
        "bly"
      ],
      [
        "pro",
        "long"
      ],
      [
        "pro",
        "cess"
      ],
      [
        "whe",
        "lming"
      ],
      [
        "IN",
        "ITI"
      ],
      [
        "begin",
        "ners"
      ],
      [
        "vi",
        "de"
      ],
      [
        "vi",
        "olat"
      ],
      [
        "princi",
        "p"
      ],
      [
        "man",
        "age"
      ],
      [
        "man",
        "ifold"
      ],
      [
        "27",
        "th"
      ],
      [
        "dis",
        "agree"
      ],
      [
        "dis",
        "tant"
      ],
      [
        "thr",
        "ust"
      ],
      [
        "lar",
        "ge"
      ],
      [
        "sel",
        "ves"
      ],
      [
        "ect",
        "ion"
      ],
      [
        "ren",
        "ce"
      ],
      [
        "ide",
        "al"
      ],
      [
        "pas",
        "sing"
      ],
      [
        "wor",
        "ld"
      ],
      [
        "them",
        "selves"
      ],
      [
        "ident",
        "ical"
      ],
      [
        "des",
        "i"
      ],
      [
        "des",
        "per"
      ],
      [
        "des",
        "erve"
      ],
      [
        "form",
        "er"
      ],
      [
        "form",
        "ation"
      ],
      [
        "care",
        "less"
      ],
      [
        "direct",
        "ed"
      ],
      [
        "arr",
        "ive"
      ],
      [
        "arr",
        "ived"
      ],
      [
        "main",
        "tain"
      ],
      [
        "No",
        "te"
      ],
      [
        "per",
        "mit"
      ],
      [
        "per",
        "haps"
      ],
      [
        "oppos",
        "ed"
      ],
      [
        "over",
        "come"
      ],
      [
        "over",
        "whelming"
      ],
      [
        "point",
        "ed"
      ],
      [
        "initiative",
        "_"
      ],
      [
        "post",
        "ing"
      ],
      [
        "safe",
        "ly"
      ],
      [
        "ef",
        "forts"
      ],
      [
        "mis",
        "sed"
      ],
      [
        "consider",
        "s"
      ],
      [
        "consider",
        "ing"
      ],
      [
        "consider",
        "able"
      ],
      [
        "consider",
        "ably"
      ],
      [
        "find",
        "ing"
      ],
      [
        "cr",
        "itic"
      ],
      [
        "cr",
        "amp"
      ],
      [
        "contr",
        "ary"
      ],
      [
        "accord",
        "ance"
      ],
      [
        "know",
        "ing"
      ],
      [
        "lear",
        "ned"
      ],
      [
        "prob",
        "lem"
      ],
      [
        "look",
        "ing"
      ],
      [
        "demon",
        "strate"
      ],
      [
        "Cast",
        "les"
      ],
      [
        "fa",
        "ce"
      ],
      [
        "wr",
        "itten"
      ],
      [
        "stand",
        "s"
      ],
      [
        "cor",
        "rect"
      ],
      [
        "seri",
        "es"
      ],
      [
        "remain",
        "ing"
      ],
      [
        "tem",
        "pt"
      ],
      [
        "PA",
        "RT"
      ],
      [
        "consis",
        "ted"
      ],
      [
        "consis",
        "tent"
      ],
      [
        "check",
        "s"
      ],
      [
        "resul",
        "ting"
      ],
      [
        "ER",
        "AL"
      ],
      [
        "put",
        "ting"
      ],
      [
        "try",
        "ing"
      ],
      [
        "hold",
        "ing"
      ],
      [
        "serious",
        "ly"
      ],
      [
        "strateg",
        "y"
      ],
      [
        "strateg",
        "ically"
      ],
      [
        "gr",
        "and"
      ],
      [
        "tur",
        "ning"
      ],
      [
        "assu",
        "ming"
      ],
      [
        "dec",
        "reas"
      ],
      [
        "dec",
        "ides"
      ],
      [
        "prove",
        "d"
      ],
      [
        "An",
        "d"
      ],
      [
        "Be",
        "hind"
      ],
      [
        "Ex",
        "amples"
      ],
      [
        "RE",
        "CT"
      ],
      [
        "fre",
        "quent"
      ],
      [
        "min",
        "or"
      ],
      [
        "sub",
        "sequent"
      ],
      [
        "sub",
        "mit"
      ],
      [
        "fix",
        "ed"
      ],
      [
        "fight",
        "s"
      ],
      [
        "fight",
        "ing"
      ],
      [
        "lu",
        "de"
      ],
      [
        "spe",
        "aking"
      ],
      [
        "protect",
        "s"
      ],
      [
        "protect",
        "ed"
      ],
      [
        "natur",
        "ally"
      ],
      [
        "favour",
        "able"
      ],
      [
        "syste",
        "ms"
      ],
      [
        "For",
        "ced"
      ],
      [
        "found",
        "ed"
      ],
      [
[...]
